{
  "version": "1.0",
  "truncation": null,
  "padding": null,
  "added_tokens": [
    {
      "id": 0,
      "content": "<|endoftext|>",
      "single_word": false,
      "lstrip": false,
      "rstrip": false,
      "normalized": false,
      "special": true
    }
  ],
  "normalizer": null,
  "pre_tokenizer": {
    "type": "ByteLevel",
    "add_prefix_space": false,
    "trim_offsets": true,
    "use_regex": true
  },
  "post_processor": null,
  "decoder": {
    "type": "ByteLevel",
    "add_prefix_space": true,
    "trim_offsets": true,
    "use_regex": true
  },
  "model": {
    "type": "BPE",
    "dropout": null,
    "unk_token": null,
    "continuing_subword_prefix": null,
    "end_of_word_suffix": null,
    "fuse_unk": false,
    "byte_fallback": false,
    "ignore_merges": false,
    "vocab": {
      "<|endoftext|>": 0,
      "!": 1,
      "\"": 2,
      "#": 3,
      "$": 4,
      "%": 5,
      "&": 6,
      "'": 7,
      "(": 8,
      ")": 9,
      "*": 10,
      "+": 11,
      ",": 12,
      "-": 13,
      ".": 14,
      "/": 15,
      "0": 16,
      "1": 17,
      "2": 18,
      "3": 19,
      "4": 20,
      "5": 21,
      "6": 22,
      "7": 23,
      "8": 24,
      "9": 25,
      ":": 26,
      ";": 27,
      "<": 28,
      "=": 29,
      ">": 30,
      "?": 31,
      "A": 32,
      "B": 33,
      "C": 34,
      "D": 35,
      "E": 36,
      "F": 37,
      "G": 38,
      "H": 39,
      "I": 40,
      "J": 41,
      "K": 42,
      "L": 43,
      "M": 44,
      "N": 45,
      "O": 46,
      "P": 47,
      "Q": 48,
      "R": 49,
      "S": 50,
      "T": 51,
      "U": 52,
      "V": 53,
      "W": 54,
      "X": 55,
      "Y": 56,
      "Z": 57,
      "[": 58,
      "\\": 59,
      "]": 60,
      "_": 61,
      "`": 62,
      "a": 63,
      "b": 64,
      "c": 65,
      "d": 66,
      "e": 67,
      "f": 68,
      "g": 69,
      "h": 70,
      "i": 71,
      "j": 72,
      "k": 73,
      "l": 74,
      "m": 75,
      "n": 76,
      "o": 77,
      "p": 78,
      "q": 79,
      "r": 80,
      "s": 81,
      "t": 82,
      "u": 83,
      "v": 84,
      "w": 85,
      "x": 86,
      "y": 87,
      "z": 88,
      "{": 89,
      "|": 90,
      "}": 91,
      "~": 92,
      "¡": 93,
      "¢": 94,
      "£": 95,
      "¦": 96,
      "¨": 97,
      "©": 98,
      "«": 99,
      "¬": 100,
      "¯": 101,
      "°": 102,
      "±": 103,
      "³": 104,
      "´": 105,
      "¶": 106,
      "¸": 107,
      "¹": 108,
      "»": 109,
      "½": 110,
      "¾": 111,
      "¿": 112,
      "Â": 113,
      "Ã": 114,
      "Å": 115,
      "Ë": 116,
      "â": 117,
      "ĉ": 118,
      "Ċ": 119,
      "Ġ": 120,
      "Ģ": 121,
      "Ĥ": 122,
      "ĥ": 123,
      "Ħ": 124,
      "Ĩ": 125,
      "ĵ": 126,
      "ĺ": 127,
      "Ļ": 128,
      "ļ": 129,
      "ľ": 130,
      "Ŀ": 131,
      "ł": 132,
      "Ń": 133,
      "he": 134,
      "Ġt": 135,
      "Ġa": 136,
      "Ġs": 137,
      "Ġw": 138,
      "nd": 139,
      "Ġthe": 140,
      "ed": 141,
      "Ġand": 142,
      "Ġto": 143,
      "Ġb": 144,
      "in": 145,
      "Ġh": 146,
      "Ġwa": 147,
      "re": 148,
      "ou": 149,
      "Ġf": 150,
      "it": 151,
      "Ġl": 152,
      "Ġc": 153,
      "Ġd": 154,
      "er": 155,
      "Ġhe": 156,
      "Ġm": 157,
      "Ġp": 158,
      "Ġwas": 159,
      "om": 160,
      "ĠT": 161,
      "Ġo": 162,
      "ay": 163,
      "ar": 164,
      "is": 165,
      "ing": 166,
      "il": 167,
      "Ġg": 168,
      "id": 169,
      "at": 170,
      "en": 171,
      "Ġn": 172,
      "Ġsa": 173,
      "Ġha": 174,
      "ĠThe": 175,
      "ĠS": 176,
      "an": 177,
      "im": 178,
      "or": 179,
      "on": 180,
      "Ġit": 181,
      "Ġth": 182,
      "ll": 183,
      "le": 184,
      "ĠH": 185,
      "ot": 186,
      "Ġher": 187,
      "et": 188,
      "ir": 189,
      "ĠShe": 190,
      "es": 191,
      "ĠHe": 192,
      "Ġin": 193,
      "ver": 194,
      "ut": 195,
      "ow": 196,
      "ĠThey": 197,
      "ck": 198,
      "Ġe": 199,
      "Ġy": 200,
      "Ġu": 201,
      "ld": 202,
      "oo": 203,
      "Ġsaid": 204,
      "ily": 205,
      "ig": 206,
      "Ġr": 207,
      "Ġ\"": 208,
      "Ġbe": 209,
      "am": 210,
      "ĠI": 211,
      "Ġst": 212,
      "ke": 213,
      "ce": 214,
      "ve": 215,
      "Ġshe": 216,
      "pp": 217,
      "ith": 218,
      "Ġwith": 219,
      "Lily": 220,
      "On": 221,
      "Ġon": 222,
      "Ġyou": 223,
      "Ġof": 224,
      "ked": 225,
      "ri": 226,
      "nt": 227,
      "Ġpl": 228,
      "Ġhis": 229,
      "Ġso": 230,
      "ad": 231,
      "very": 232,
      "Ġday": 233,
      "Ġthat": 234,
      "Ġup": 235,
      "Ġplay": 236,
      "Ġhad": 237,
      "st": 238,
      "Ġthey": 239,
      "ĠLily": 240,
      "Ġwe": 241,
      "Ġmom": 242,
      "ĠB": 243,
      "Ġfor": 244,
      "el": 245,
      "un": 246,
      "ould": 247,
      "'s": 248,
      "The": 249,
      "my": 250,
      "Ġli": 251,
      "ch": 252,
      "Ġhapp": 253,
      "Ġwant": 254,
      "ent": 255,
      "Ġsh": 256,
      "itt": 257,
      "out": 258,
      "her": 259,
      "Ġnot": 260,
      "Ġdo": 261,
      "se": 262,
      "ly": 263,
      "ome": 264,
      "Ġvery": 265,
      "ound": 266,
      "end": 267,
      "all": 268,
      "Ġwh": 269,
      "ime": 270,
      "Ġk": 271,
      "ittle": 272,
      "Ġtime": 273,
      "al": 274,
      "Ġlittle": 275,
      "ĠM": 276,
      "Ġne": 277,
      "ht": 278,
      "Ġthere": 279,
      "Ġis": 280,
      "Ġhappy": 281,
      "Ġre": 282,
      "Ġbig": 283,
      "Ġsm": 284,
      "ĠIt": 285,
      "Ġbut": 286,
      "ĠĊ": 287,
      "Ġan": 288,
      "ra": 289,
      "Ġsaw": 290,
      "ry": 291,
      ".\"": 292,
      "riend": 293,
      "Ġfriend": 294,
      "Ġas": 295,
      "ack": 296,
      "One": 297,
      "ide": 298,
      "ake": 299,
      "'t": 300,
      "ug": 301,
      "!\"": 302,
      "Ġloo": 303,
      "Ġwere": 304,
      "ter": 305,
      "ved": 306,
      "ore": 307,
      "Ġlo": 308,
      "Once": 309,
      "ec": 310,
      "Ġtoo": 311,
      "Ġhim": 312,
      "Ġbo": 313,
      "Ġgo": 314,
      "Ġse": 315,
      "Ġare": 316,
      "Ġj": 317,
      "irl": 318,
      "ard": 319,
      "Ġwanted": 320,
      "ill": 321,
      "ĠTim": 322,
      "Ġthem": 323,
      "Ġgirl": 324,
      "Ġupon": 325,
      "Ġout": 326,
      "Ġat": 327,
      "Ġtheir": 328,
      "ur": 329,
      "ind": 330,
      "fu": 331,
      "way": 332,
      "ĠA": 333,
      "Ġdid": 334,
      "Ġsp": 335,
      "Ġsmil": 336,
      "Ġcould": 337,
      "hen": 338,
      "Ġhave": 339,
      "ain": 340,
      "art": 341,
      "hed": 342,
      "Ġex": 343,
      "rom": 344,
      "Ġar": 345,
      "Ġcan": 346,
      "Ġwent": 347,
      "ic": 348,
      "ĠBen": 349,
      "lp": 350,
      "ful": 351,
      "ĠJ": 352,
      "ood": 353,
      "?\"": 354,
      "Ġfriends": 355,
      "hing": 356,
      "ight": 357,
      "Ġnam": 358,
      "Ġkn": 359,
      "Ġall": 360,
      "Ġhelp": 361,
      "Ġsay": 362,
      "um": 363,
      "one": 364,
      "ark": 365,
      "Ġback": 366,
      "You": 367,
      "ĠTom": 368,
      "Ġcl": 369,
      "Ġfun": 370,
      "are": 371,
      "Ġno": 372,
      "Ġle": 373,
      "op": 374,
      "Ġsc": 375,
      "Ġal": 376,
      "Ġsmiled": 377,
      "Ġnamed": 378,
      "oug": 379,
      "Ġman": 380,
      "elt": 381,
      "Ġloved": 382,
      "side": 383,
      "ick": 384,
      "ĠOne": 385,
      "Ġtoy": 386,
      "Ġlike": 387,
      "Ġasked": 388,
      "Ġfelt": 389,
      "Ġfe": 390,
      "Ġlooked": 391,
      "Ġsee": 392,
      "Ġme": 393,
      "Ġsome": 394,
      "Ġaround": 395,
      "ame": 396,
      "omet": 397,
      "ĠW": 398,
      "Ġro": 399,
      "Ġbr": 400,
      "ure": 401,
      "Ġbir": 402,
      "ice": 403,
      "ĠTimmy": 404,
      "get": 405,
      "Ġwould": 406,
      "Ġboy": 407,
      "Ġstart": 408,
      "ong": 409,
      "ss": 410,
      "Ġbird": 411,
      "Ġsomet": 412,
      "Ġfa": 413,
      "Ã¢": 414,
      "âĤ": 415,
      "âĤ¬": 416,
      "dd": 417,
      "ings": 418,
      "Ġag": 419,
      "ade": 420,
      "Ġmake": 421,
      "Ġwor": 422,
      "Ġwhat": 423,
      ",\"": 424,
      "king": 425,
      "ĠYou": 426,
      "ĠBut": 427,
      "Ġsays": 428,
      "Ġran": 429,
      "own": 430,
      "ie": 431,
      "Ġaway": 432,
      "Ġtre": 433,
      "gether": 434,
      "ared": 435,
      "ag": 436,
      "Ġstarted": 437,
      "oud": 438,
      "if": 439,
      "Ġmade": 440,
      "Ġcar": 441,
      "Ġsomething": 442,
      "Ġtogether": 443,
      "ther": 444,
      "Ġpark": 445,
      "Ġco": 446,
      "ited": 447,
      "Ġsad": 448,
      "Ġother": 449,
      "Ġnew": 450,
      "Ġfrom": 451,
      "Ġput": 452,
      "ell": 453,
      "Ġexc": 454,
      "Ġla": 455,
      "Ġpr": 456,
      "Ġhug": 457,
      "ĠL": 458,
      "ble": 459,
      "ook": 460,
      "Ġagain": 461,
      "ach": 462,
      "Ġmu": 463,
      "Ġgood": 464,
      "Ġwhen": 465,
      "Ġhome": 466,
      "ep": 467,
      "Ġwho": 468,
      "ried": 469,
      "Ġfl": 470,
      "est": 471,
      "hat": 472,
      "Ġthen": 473,
      "Ġfound": 474,
      "Ġch": 475,
      "pped": 476,
      "Ġdec": 477,
      "as": 478,
      "Ġwal": 479,
      "Ġget": 480,
      "qu": 481,
      "Ġplaying": 482,
      "nn": 483,
      "ought": 484,
      "Ġsw": 485,
      "ĠE": 486,
      "pl": 487,
      "ally": 488,
      "ous": 489,
      "Ġthings": 490,
      "Ġliked": 491,
      "uck": 492,
      "Ġexcited": 493,
      "Ġgot": 494,
      "ro": 495,
      "Ġbl": 496,
      "ided": 497,
      "ara": 498,
      "ave": 499,
      "Ġdecided": 500,
      "Ġevery": 501,
      "Ġyour": 502,
      "ĠD": 503,
      "Ġcame": 504,
      "ĠMom": 505,
      "Ġdog": 506,
      "ax": 507,
      "Ġscared": 508,
      "Ġv": 509,
      "ust": 510,
      "Ġdown": 511,
      "Ġone": 512,
      "ouse": 513,
      "Ġfind": 514,
      "Ġcare": 515,
      "nna": 516,
      "ist": 517,
      "ny": 518,
      "ap": 519,
      "Ġthan": 520,
      "Ġbec": 521,
      "They": 522,
      "Ġfeel": 523,
      "ue": 524,
      "Ġdad": 525,
      "Ġmy": 526,
      "udd": 527,
      "Ġab": 528,
      "Ġwill": 529,
      "Ġlook": 530,
      "arn": 531,
      "our": 532,
      "Ġke": 533,
      "Ġgra": 534,
      "us": 535,
      "Ġgr": 536,
      "nder": 537,
      "ess": 538,
      "ways": 539,
      "Ġpo": 540,
      "fe": 541,
      "Ġdidn": 542,
      "Ġtook": 543,
      "Ġabout": 544,
      "Ġalways": 545,
      "ers": 546,
      "Ġtoys": 547,
      "ant": 548,
      "bb": 549,
      "Ġlot": 550,
      "Ġkne": 551,
      "ĠSam": 552,
      "Ġball": 553,
      "ise": 554,
      "Ġmommy": 555,
      "Ġtree": 556,
      "Ġthought": 557,
      "Ġoutside": 558,
      "ĠF": 559,
      "ite": 560,
      "Ġmore": 561,
      "ened": 562,
      "Ġta": 563,
      "ched": 564,
      "Ġlearn": 565,
      "eci": 566,
      "Ġho": 567,
      "ret": 568,
      "Ġold": 569,
      "Ġint": 570,
      "ged": 571,
      "Ġknow": 572,
      "Ġsor": 573,
      "Ġcat": 574,
      "Ġlaug": 575,
      "Ġtake": 576,
      "ive": 577,
      "ecial": 578,
      "Ġspecial": 579,
      "ia": 580,
      "Ġknew": 581,
      "ĠMax": 582,
      "udden": 583,
      "Ġany": 584,
      "Ġpe": 585,
      "fter": 586,
      "Ġhow": 587,
      "uddenly": 588,
      "Ġsorry": 589,
      "ink": 590,
      "ma": 591,
      "Ġshow": 592,
      "But": 593,
      "Ġtr": 594,
      "Ġrun": 595,
      "ish": 596,
      "Ġtw": 597,
      "Ġsl": 598,
      "Ġmuch": 599,
      "au": 600,
      "and": 601,
      "Ġhand": 602,
      "Ġhouse": 603,
      "Ġor": 604,
      "Ġop": 605,
      "ven": 606,
      "Ġsk": 607,
      "Ġmo": 608,
      "Ġclo": 609,
      "Ġsun": 610,
      "Ġtried": 611,
      "Ġinto": 612,
      "Tom": 613,
      "Ġwater": 614,
      "Ġinside": 615,
      "ump": 616,
      "Ġtold": 617,
      "ank": 618,
      "ate": 619,
      "ĠSara": 620,
      "Ġthis": 621,
      "Ġen": 622,
      "Ġgave": 623,
      "Ġproud": 624,
      "Ġqu": 625,
      "Ġheard": 626,
      "Ġif": 627,
      "Ġnever": 628,
      "Ġeach": 629,
      "Ġover": 630,
      "Ġcouldn": 631,
      "ace": 632,
      "ĠWe": 633,
      "ty": 634,
      "ĠAnna": 635,
      "Ġroom": 636,
      "by": 637,
      "dy": 638,
      "Ġeat": 639,
      "ĠEvery": 640,
      "other": 641,
      "Ġpret": 642,
      "ion": 643,
      "Ġpick": 644,
      "Ġexpl": 645,
      "ause": 646,
      "Ġplayed": 647,
      "Mom": 648,
      "ak": 649,
      "ge": 650,
      "etter": 651,
      "Ġgre": 652,
      "Ġhugged": 653,
      "Ġjust": 654,
      "here": 655,
      "Ġcom": 656,
      "Ġbox": 657,
      "Ġoff": 658,
      "Ġwat": 659,
      "oth": 660,
      "Ġnice": 661,
      "Ġneed": 662,
      "Ġmany": 663,
      "'m": 664,
      "Ġstr": 665,
      "Ġbecause": 666,
      "ile": 667,
      "Ġsmall": 668,
      "gry": 669,
      "Ġfo": 670,
      "iz": 671,
      "Ġbu": 672,
      "Ġjo": 673,
      "ving": 674,
      "Ġlong": 675,
      "uc": 676,
      "imal": 677,
      "Ġanimal": 678,
      "Ġbear": 679,
      "ine": 680,
      "Ġsn": 681,
      "Ġtry": 682,
      "ort": 683,
      "ough": 684,
      "Ġunt": 685,
      "urt": 686,
      "ild": 687,
      "sel": 688,
      "Ġlearned": 689,
      "sed": 690,
      "Ġuntil": 691,
      "ĠJack": 692,
      "Ġlove": 693,
      "Ġkind": 694,
      "Ġbetter": 695,
      "ft": 696,
      "Ġflow": 697,
      "Ġim": 698,
      "ĠMia": 699,
      "Ġcall": 700,
      "Ġdon": 701,
      "He": 702,
      "Ġbest": 703,
      "ars": 704,
      "ull": 705,
      "urn": 706,
      "em": 707,
      "Ġend": 708,
      "ady": 709,
      "urp": 710,
      "Ġcle": 711,
      "Ġad": 712,
      "Yes": 713,
      "vent": 714,
      "aut": 715,
      "ves": 716,
      "ĠAnd": 717,
      "ream": 718,
      "ĠJo": 719,
      "Ġcareful": 720,
      "ĠC": 721,
      "Ġfast": 722,
      "arden": 723,
      "Ġgarden": 724,
      "Ġbeaut": 725,
      "ber": 726,
      "Th": 727,
      "Ġfi": 728,
      "Ġche": 729,
      "Ġthanked": 730,
      "Ġbra": 731,
      "pt": 732,
      "Ġsky": 733,
      "Åĵ": 734,
      "Ġeven": 735,
      "ies": 736,
      "Ġjump": 737,
      "ĠSo": 738,
      "lly": 739,
      "Ġlaughed": 740,
      "ase": 741,
      "Ġloud": 742,
      "It": 743,
      "Ġby": 744,
      "Ġte": 745,
      "self": 746,
      "ĠHer": 747,
      "Ġgl": 748,
      "Ġlist": 749,
      "iny": 750,
      "wn": 751,
      "lew": 752,
      "Ġcome": 753,
      "Ġbeauti": 754,
      "Ġhard": 755,
      "Ġbeautiful": 756,
      "Ġway": 757,
      "Ġhurt": 758,
      "Ġanimals": 759,
      "Ġlots": 760,
      "Ġwo": 761,
      "Ġstill": 762,
      "Ġfam": 763,
      "Ġra": 764,
      "Ġunder": 765,
      "ĠThen": 766,
      "Ġstay": 767,
      "Ġlet": 768,
      "ct": 769,
      "ĠÃ¢": 770,
      "ect": 771,
      "ning": 772,
      "be": 773,
      "hes": 774,
      "Ġcu": 775,
      "Ġboth": 776,
      "Ġsafe": 777,
      "ĠFrom": 778,
      "ool": 779,
      "Ġbad": 780,
      "ĠHis": 781,
      "Ġcol": 782,
      "ople": 783,
      "ock": 784,
      "Ġrem": 785,
      "Ġtwo": 786,
      "ree": 787,
      "kay": 788,
      "Ġbook": 789,
      "Ġimp": 790,
      "Ġlived": 791,
      "ast": 792,
      "Ġits": 793,
      "Tim": 794,
      "ane": 795,
      "Ġangry": 796,
      "Ġshould": 797,
      "No": 798,
      "ucy": 799,
      "ress": 800,
      "Ġbrave": 801,
      "urpr": 802,
      "ished": 803,
      "Ġwalked": 804,
      "Ġpeople": 805,
      "Ġred": 806,
      "Ġflew": 807,
      "igh": 808,
      "ob": 809,
      "Ġsurpr": 810,
      "Ġfamily": 811,
      "When": 812,
      "Ġcalled": 813,
      "ip": 814,
      "Ġsoon": 815,
      "Ġstor": 816,
      "Ġfin": 817,
      "Let": 818,
      "Ġshare": 819,
      "fore": 820,
      "Ġkept": 821,
      "led": 822,
      "Ġdan": 823,
      "Ġfly": 824,
      "xt": 825,
      "Ġfore": 826,
      "dded": 827,
      "Ġpic": 828,
      "ised": 829,
      "hn": 830,
      "Ġdoor": 831,
      "ĠP": 832,
      "Ġclean": 833,
      "Ġgoing": 834,
      "Ġrock": 835,
      "Ġpretty": 836,
      "Ben": 837,
      "ĠWhen": 838,
      "âĤ¬â": 839,
      "Ġnow": 840,
      "Ġkeep": 841,
      "Ġnoise": 842,
      "Ġdra": 843,
      "Ġshiny": 844,
      "Ġdoll": 845,
      "Ġopened": 846,
      "ummy": 847,
      "Ġwind": 848,
      "ary": 849,
      "Ġcry": 850,
      "Ġadvent": 851,
      "age": 852,
      "Ġbefore": 853,
      "Ġreal": 854,
      "Ġide": 855,
      "Ġsto": 856,
      "Ġcon": 857,
      "so": 858,
      "Ġturn": 859,
      "illy": 860,
      "Ġexplore": 861,
      "Ġground": 862,
      "les": 863,
      "ied": 864,
      "Ġalso": 865,
      "What": 866,
      "Ġfr": 867,
      "Ġey": 868,
      "Ġfar": 869,
      "Ġidea": 870,
      "Ġcolor": 871,
      "Ġnodded": 872,
      "That": 873,
      "oon": 874,
      "Ħ¢": 875,
      "âĤ¬âĦ¢": 876,
      "Ġhas": 877,
      "Ġwar": 878,
      "oy": 879,
      "th": 880,
      "imb": 881,
      "Ġun": 882,
      "Ġfeeling": 883,
      "Ġnext": 884,
      "Ġpicked": 885,
      "ture": 886,
      "uch": 887,
      "kes": 888,
      "thing": 889,
      "Ġclimb": 890,
      "ĠLucy": 891,
      "Ġma": 892,
      "Ġwalking": 893,
      "ĠDad": 894,
      "Ġsmile": 895,
      "aybe": 896,
      "Ġwhile": 897,
      "Ġthr": 898,
      "Ġbed": 899,
      "eet": 900,
      "ger": 901,
      "Ġadventure": 902,
      "Thank": 903,
      "Ġbeing": 904,
      "Ġgive": 905,
      "Ġtruck": 906,
      "ĠG": 907,
      "iced": 908,
      "Ġclos": 909,
      "Ġpicture": 910,
      "Ġthink": 911,
      "ious": 912,
      "Ġdif": 913,
      "ted": 914,
      "Ġfood": 915,
      "Ġwr": 916,
      "joy": 917,
      "Ġtow": 918,
      "Ġlisten": 919,
      "ff": 920,
      "ac": 921,
      "Ġeyes": 922,
      "ught": 923,
      "Ġbre": 924,
      "Ġdel": 925,
      "Ġstopped": 926,
      "Ġbro": 927,
      "Ġtra": 928,
      "Ġlooking": 929,
      "Ġafter": 930,
      "ĠSp": 931,
      "ting": 932,
      "Ġwait": 933,
      "Ġown": 934,
      "Ġvo": 935,
      "Ġshout": 936,
      "Ġwalk": 937,
      "Ġrepl": 938,
      "ember": 939,
      "Ġhead": 940,
      "Ġflowers": 941,
      "Ġgreat": 942,
      "Ġblue": 943,
      "Ġwonder": 944,
      "Ġhands": 945,
      "ĠSuddenly": 946,
      "Ġenjoy": 947,
      "Ġever": 948,
      "She": 949,
      "Suddenly": 950,
      "irst": 951,
      "ized": 952,
      "Ġnear": 953,
      "Ġimport": 954,
      "Ġnoticed": 955,
      "Ġdis": 956,
      "bbit": 957,
      "Ġslide": 958,
      "Ġfish": 959,
      "Ġquick": 960,
      "Ġapp": 961,
      "Ġforest": 962,
      "able": 963,
      "Ġus": 964,
      "llow": 965,
      "Ġremember": 966,
      "Ġde": 967,
      "Ġmean": 968,
      "Ġsound": 969,
      "lease": 970,
      "maz": 971,
      "Ġwatch": 972,
      "Ġrain": 973,
      "Ġamaz": 974,
      "Ġimportant": 975,
      "Ġask": 976,
      "Ġokay": 977,
      "Ġwork": 978,
      "bbed": 979,
      "Ġshowed": 980,
      "Ġtal": 981,
      "bye": 982,
      "gan": 983,
      "fere": 984,
      "We": 985,
      "Ġreplied": 986,
      "Ġstick": 987,
      "Ġrabbit": 988,
      "Ġdiffere": 989,
      "Ġac": 990,
      "Ġbright": 991,
      "Ġright": 992,
      "day": 993,
      "Ġfollow": 994,
      "Ġeveryone": 995,
      "Ġboat": 996,
      "Ġstrong": 997,
      "Anna": 998,
      "Ġuse": 999,
      "Ġsqu": 1000,
      "Ġwatched": 1001,
      "Ġour": 1002,
      "Ġwhere": 1003,
      "ĠSpot": 1004,
      "Ġye": 1005,
      "ath": 1006,
      "ered": 1007,
      "Ġquickly": 1008,
      "Ġmor": 1009,
      "Ġyell": 1010,
      "Ġbeen": 1011,
      "Ġvoice": 1012,
      "So": 1013,
      "Ġdoes": 1014,
      "ĠBob": 1015,
      "Ġchild": 1016,
      "ng": 1017,
      "Ġface": 1018,
      "Ġdifferent": 1019,
      "Ġcuri": 1020,
      "Ġhop": 1021,
      "Look": 1022,
      "ĠMommy": 1023,
      "ange": 1024,
      "ĠN": 1025,
      "Ġsure": 1026,
      "ĠSue": 1027,
      "Ġam": 1028,
      "Ġbecame": 1029,
      "aught": 1030,
      "Sara": 1031,
      "Ġdress": 1032,
      "Ġgoodbye": 1033,
      "Ġplace": 1034,
      "Ġcloser": 1035,
      "Ġstore": 1036,
      "ila": 1037,
      "Ġmag": 1038,
      "Ġhigh": 1039,
      "Ġwarm": 1040,
      "ĠR": 1041,
      "Ġforg": 1042,
      "Ġcurious": 1043,
      "Ġtell": 1044,
      "ndma": 1045,
      "Ġcook": 1046,
      "unny": 1047,
      "Ġcake": 1048,
      "Ġblock": 1049,
      "Ġbel": 1050,
      "more": 1051,
      "co": 1052,
      "leep": 1053,
      "Ġanymore": 1054,
      "ass": 1055,
      "Ġopen": 1056,
      "Ġnight": 1057,
      "Jo": 1058,
      "ount": 1059,
      "Ġfav": 1060,
      "Ġhere": 1061,
      "Ġpull": 1062,
      "itc": 1063,
      "Ġfirst": 1064,
      "Ġthree": 1065,
      "Ġz": 1066,
      "ached": 1067,
      "ĠTh": 1068,
      "ired": 1069,
      "Ġpain": 1070,
      "iss": 1071,
      "Ġpu": 1072,
      "Ġbus": 1073,
      "imes": 1074,
      "Her": 1075,
      "Ġgrabbed": 1076,
      "Ġlea": 1077,
      "orn": 1078,
      "Ġru": 1079,
      "Can": 1080,
      "Ġsweet": 1081,
      "Ġfell": 1082,
      "Ġkid": 1083,
      "Ġonly": 1084,
      "Ġbutter": 1085,
      "Ġbirds": 1086,
      "isy": 1087,
      "Ġmon": 1088,
      "Ġsees": 1089,
      "itchen": 1090,
      "Ġkitchen": 1091,
      "Ġjumped": 1092,
      "Ġfire": 1093,
      "Ġcont": 1094,
      "Ġbit": 1095,
      "Ġsand": 1096,
      "Ġba": 1097,
      "Ġflo": 1098,
      "Ġstop": 1099,
      "Ġhelped": 1100,
      "Ġglad": 1101,
      "Ġhappened": 1102,
      "Ġgrass": 1103,
      "Ġper": 1104,
      "Ġsing": 1105,
      "Ġshouted": 1106,
      "Ġcra": 1107,
      "Ġdr": 1108,
      "Ġtri": 1109,
      "ĠSarah": 1110,
      "ĠDo": 1111,
      "nts": 1112,
      "Ġcr": 1113,
      "ĠLet": 1114,
      "Ġbeh": 1115,
      "Ġbrother": 1116,
      "Ġreached": 1117,
      "Ġstory": 1118,
      "ppy": 1119,
      "After": 1120,
      "air": 1121,
      "Ġrealized": 1122,
      "ins": 1123,
      "Ġbunny": 1124,
      "Ġlady": 1125,
      "ĠJane": 1126,
      "Ġyummy": 1127,
      "ĠAs": 1128,
      "Ġmess": 1129,
      "Ġhaving": 1130,
      "Ġsoft": 1131,
      "Ġunderst": 1132,
      "Ġgame": 1133,
      "Ġless": 1134,
      "akes": 1135,
      "Ġate": 1136,
      "Ġcre": 1137,
      "'re": 1138,
      "Ġprin": 1139,
      "Ġpretend": 1140,
      "ĠEveryone": 1141,
      "Ġdraw": 1142,
      "Ġhat": 1143,
      "Ġmum": 1144,
      "Ġpare": 1145,
      "Ġrest": 1146,
      "Ġfavor": 1147,
      "Ġthrough": 1148,
      "Ġready": 1149,
      "Ġpap": 1150,
      "zy": 1151,
      "Ġfavorite": 1152,
      "Ġthing": 1153,
      "where": 1154,
      "ken": 1155,
      "Ġlooks": 1156,
      "ĠThat": 1157,
      "Ġreally": 1158,
      "ĠCan": 1159,
      "Ġmagic": 1160,
      "Ġduck": 1161,
      "Ġmaking": 1162,
      "Ġcut": 1163,
      "ater": 1164,
      "Ġworld": 1165,
      "Ġhimself": 1166,
      "ather": 1167,
      "Ġbegan": 1168,
      "Ġdone": 1169,
      "fully": 1170,
      "Ġcoming": 1171,
      "Mommy": 1172,
      "ĠJoe": 1173,
      "Ġkids": 1174,
      "Ġcars": 1175,
      "Ġprom": 1176,
      "Ġpond": 1177,
      "Ġwaved": 1178,
      "Ġtired": 1179,
      "Ġtouch": 1180,
      "Ġwhy": 1181,
      "Ġfro": 1182,
      "bo": 1183,
      "ster": 1184,
      "Ġbutterf": 1185,
      "Ġfix": 1186,
      "Wow": 1187,
      "Ġste": 1188,
      "Ġflower": 1189,
      "Ġpart": 1190,
      "Ġworry": 1191,
      "Ġfill": 1192,
      "Ġname": 1193,
      "Ġfunny": 1194,
      "Ġcatch": 1195,
      "Ġmouse": 1196,
      "Ġcried": 1197,
      "sh": 1198,
      "Ġused": 1199,
      "Ġpus": 1200,
      "Ġdelic": 1201,
      "Ġseen": 1202,
      "Ġblocks": 1203,
      "Ġhair": 1204,
      "Ġparents": 1205,
      "ign": 1206,
      "ient": 1207,
      "rel": 1208,
      "Ġanother": 1209,
      "Ġhold": 1210,
      "uff": 1211,
      "oney": 1212,
      "eddy": 1213,
      "Ġcool": 1214,
      "aisy": 1215,
      "Ġgreen": 1216,
      "olly": 1217,
      "Ġtop": 1218,
      "Ġtast": 1219,
      "Ġlight": 1220,
      "Ġhopped": 1221,
      "iver": 1222,
      "mer": 1223,
      "hy": 1224,
      "Ġdoing": 1225,
      "Ġlesson": 1226,
      "Ġthank": 1227,
      "Ġsurprise": 1228,
      "ĠJohn": 1229,
      "Ġlikes": 1230,
      "ation": 1231,
      "\".": 1232,
      "ards": 1233,
      "Ġswim": 1234,
      "Ġgi": 1235,
      "Ġpaper": 1236,
      "Ġfloor": 1237,
      "Ġwished": 1238,
      "As": 1239,
      "Ġdri": 1240,
      "Ġwindow": 1241,
      "Don": 1242,
      "Sam": 1243,
      "Ġsmell": 1244,
      "Timmy": 1245,
      "Ġbag": 1246,
      "Ġbehind": 1247,
      "Ġdark": 1248,
      "Ġwood": 1249,
      "Ġfull": 1250,
      "Ġtrees": 1251,
      "Ġdro": 1252,
      "Ġrunning": 1253,
      "Ġread": 1254,
      "ike": 1255,
      "Ġworked": 1256,
      "Ġspot": 1257,
      "Ġ-": 1258,
      "Ġdin": 1259,
      "Ġbow": 1260,
      "andy": 1261,
      "Ġyellow": 1262,
      "ren": 1263,
      "ul": 1264,
      "Ġsho": 1265,
      "Ġyears": 1266,
      "ued": 1267,
      "Ġsleep": 1268,
      "Ġsat": 1269,
      "Ġhole": 1270,
      "aring": 1271,
      "Ġhappily": 1272,
      "Ġlaugh": 1273,
      "ely": 1274,
      "Ġfrog": 1275,
      "Ġsurprised": 1276,
      "ĠIn": 1277,
      "Ġset": 1278,
      "Ġswing": 1279,
      "John": 1280,
      "rew": 1281,
      "Ġslow": 1282,
      "Ġremembered": 1283,
      "Ġcarefully": 1284,
      "Ġheld": 1285,
      "Ġlost": 1286,
      "Ġcold": 1287,
      "Hell": 1288,
      "Hello": 1289,
      "Ġbutterfly": 1290,
      "Ġbuy": 1291,
      "Ġice": 1292,
      "uit": 1293,
      "ons": 1294,
      "Ġneeded": 1295,
      "Ġmove": 1296,
      "Ġleft": 1297,
      "Ġhear": 1298,
      "Ġanything": 1299,
      "Ġperf": 1300,
      "Ġenjoyed": 1301,
      "Ġwrong": 1302,
      "Ġfollowed": 1303,
      "Ġfair": 1304,
      "reed": 1305,
      "Ġtall": 1306,
      "Ġdream": 1307,
      "Ġhun": 1308,
      "Ġel": 1309,
      "Ġarri": 1310,
      "Ġchildren": 1311,
      "cess": 1312,
      "Ġtable": 1313,
      "inally": 1314,
      "Ġair": 1315,
      "Ġbooks": 1316,
      "ens": 1317,
      "Ġdir": 1318,
      "Ġfriendly": 1319,
      "Ġhill": 1320,
      "Ġunderstand": 1321,
      "Ġfinished": 1322,
      "ross": 1323,
      "Ġplease": 1324,
      "Ġsnow": 1325,
      "Ġhot": 1326,
      "Ġherself": 1327,
      "Ġdelicious": 1328,
      "Ġclose": 1329,
      "ined": 1330,
      "Ġhid": 1331,
      "Ġcontin": 1332,
      "ds": 1333,
      "Ġmight": 1334,
      "ĠAfter": 1335,
      "Ġarm": 1336,
      "sp": 1337,
      "Ġelse": 1338,
      "Ġbug": 1339,
      "Ġforgot": 1340,
      "Ġarrived": 1341,
      "Ġcolors": 1342,
      "Ġcast": 1343,
      "lf": 1344,
      "ield": 1345,
      "ĠLila": 1346,
      "Ġbroken": 1347,
      "Ġgent": 1348,
      "Ġrel": 1349,
      "Ġbaby": 1350,
      "Ġtight": 1351,
      "Ġwonderful": 1352,
      "ĠDaisy": 1353,
      "Ġbuild": 1354,
      "Ġmat": 1355,
      "Ġable": 1356,
      "Ġsong": 1357,
      "Then": 1358,
      "Ġgone": 1359,
      "av": 1360,
      "asure": 1361,
      "Ġwants": 1362,
      "ĠNow": 1363,
      "Ġfilled": 1364,
      "Ġsquir": 1365,
      "ĠBenny": 1366,
      "ner": 1367,
      "ĠSally": 1368,
      "Ġwall": 1369,
      "Ġcreat": 1370,
      "Ġpat": 1371,
      "OK": 1372,
      "room": 1373,
      "Ġsomeone": 1374,
      "Ġagreed": 1375,
      "Ġyes": 1376,
      "ich": 1377,
      "Ġleaves": 1378,
      "Ġcount": 1379,
      "Ġpink": 1380,
      "Ġsquirrel": 1381,
      "Ġcontinued": 1382,
      "ask": 1383,
      "Jack": 1384,
      "ĠThere": 1385,
      "ama": 1386,
      "ee": 1387,
      "'ll": 1388,
      "ey": 1389,
      "ĠEm": 1390,
      "Ġvis": 1391,
      "Ġlion": 1392,
      "Ġenough": 1393,
      "Ġbreak": 1394,
      "From": 1395,
      "ĠTommy": 1396,
      "Ġstayed": 1397,
      "Ġgetting": 1398,
      "Ġpoin": 1399,
      "Ġmorning": 1400,
      "Ġmoment": 1401,
      "ĠMaybe": 1402,
      "Ġfinally": 1403,
      "app": 1404,
      "ash": 1405,
      "Ġfall": 1406,
      "Ġgrandma": 1407,
      "Ġcookies": 1408,
      "ries": 1409,
      "Ġju": 1410,
      "Ġhungry": 1411,
      "Ġscary": 1412,
      "ance": 1413,
      "gon": 1414,
      "Ġturned": 1415,
      "Ġfight": 1416,
      "Ġsometimes": 1417,
      "Ġpi": 1418,
      "row": 1419,
      "Ġmakes": 1420,
      "Ġbeach": 1421,
      "Ġwet": 1422,
      "ĠThis": 1423,
      "Ġtrying": 1424,
      "ced": 1425,
      "ĠK": 1426,
      "icy": 1427,
      "Ġamazing": 1428,
      "Ġsmiles": 1429,
      "Ġfew": 1430,
      "ĠWhat": 1431,
      "red": 1432,
      "Ġothers": 1433,
      "Ġclimbed": 1434,
      "Ġmother": 1435,
      "oom": 1436,
      "Ġdinner": 1437,
      "apped": 1438,
      "Ġcomp": 1439,
      "Ġlistened": 1440,
      "Ġtalk": 1441,
      "This": 1442,
      "key": 1443,
      "Ġpictures": 1444,
      "Ġcastle": 1445,
      "Ġcream": 1446,
      "Ġmet": 1447,
      "At": 1448,
      "Ġperfect": 1449,
      "rot": 1450,
      "Ġmus": 1451,
      "Ġclot": 1452,
      "Ġwhite": 1453,
      "Ġfur": 1454,
      "Ġdaddy": 1455,
      "oring": 1456,
      "His": 1457,
      "Ġclothes": 1458,
      "lc": 1459,
      "Ġtail": 1460,
      "amp": 1461,
      "oup": 1462,
      "Ġballoon": 1463,
      "Ġpuppy": 1464,
      "Ġmar": 1465,
      "ctor": 1466,
      "Ġpet": 1467,
      "ĠGra": 1468,
      "Ġjoy": 1469,
      "Ġalone": 1470,
      "Ġpol": 1471,
      "Ġasks": 1472,
      "ence": 1473,
      "Oh": 1474,
      "man": 1475,
      "ĠBilly": 1476,
      "Ġsail": 1477,
      "Ġwasn": 1478,
      "Ġbrought": 1479,
      "Ġspl": 1480,
      "Ġspark": 1481,
      "Ġwoods": 1482,
      "Ġeverything": 1483,
      "ated": 1484,
      "Ġdeep": 1485,
      "Ġstrange": 1486,
      "der": 1487,
      "ister": 1488,
      "ĠTo": 1489,
      "Ġpulled": 1490,
      "Ġsit": 1491,
      "Ġride": 1492,
      "Ġdanger": 1493,
      "Ġsear": 1494,
      "uffy": 1495,
      "Ġplan": 1496,
      "Ġgrow": 1497,
      "Ġroll": 1498,
      "ling": 1499,
      "ott": 1500,
      "Ġwon": 1501,
      "eter": 1502,
      "Ġwaited": 1503,
      "Ġhide": 1504,
      "ĠJen": 1505,
      "Ġvisit": 1506,
      "ucky": 1507,
      "Ġpie": 1508,
      "Ġfox": 1509,
      "Ġamazed": 1510,
      "ower": 1511,
      "med": 1512,
      "Ġleave": 1513,
      "me": 1514,
      "Ġtreat": 1515,
      "zz": 1516,
      "os": 1517,
      "ang": 1518,
      "Ġmusic": 1519,
      "Ġteddy": 1520,
      "ever": 1521,
      "ĠAmy": 1522,
      "Ġtowards": 1523,
      "Ġruns": 1524,
      "Ġsilly": 1525,
      "ape": 1526,
      "Ġthinks": 1527,
      "Ġland": 1528,
      "Ġliving": 1529,
      "Ġcloud": 1530,
      "Max": 1531,
      "Ġflying": 1532,
      "Maybe": 1533,
      "Ġpen": 1534,
      "Ġpre": 1535,
      "Ġfield": 1536,
      "Ġshared": 1537,
      "ames": 1538,
      "igg": 1539,
      "ained": 1540,
      "ises": 1541,
      "Ġpromised": 1542,
      "Okay": 1543,
      "ugg": 1544,
      "Ġqui": 1545,
      "ope": 1546,
      "Ġowner": 1547,
      "gs": 1548,
      "ol": 1549,
      "Ġgu": 1550,
      "Ġjob": 1551,
      "Ġpaint": 1552,
      "Ġrace": 1553,
      "thy": 1554,
      "Ġbelie": 1555,
      "cket": 1556,
      "Ġpa": 1557,
      "Ġside": 1558,
      "Ġmoney": 1559,
      "Ġmoral": 1560,
      "Ġlake": 1561,
      "Ġparty": 1562,
      "Ġsec": 1563,
      "ually": 1564,
      "orm": 1565,
      "Ġquiet": 1566,
      "cle": 1567,
      "Ġsister": 1568,
      "Ġwear": 1569,
      "avy": 1570,
      "eces": 1571,
      "Ġmust": 1572,
      "Ġworried": 1573,
      "Ġpieces": 1574,
      "ĠJim": 1575,
      "Ġfaster": 1576,
      "Ġbran": 1577,
      "Ġcup": 1578,
      "Ġslowly": 1579,
      "sw": 1580,
      "up": 1581,
      "unch": 1582,
      "Ġcolorful": 1583,
      "ix": 1584,
      "Ġansw": 1585,
      "ased": 1586,
      "Ġow": 1587,
      "Ġbroke": 1588,
      "Ġgif": 1589,
      "Ġgrate": 1590,
      "Ġwelc": 1591,
      "Ġbike": 1592,
      "Ġdance": 1593,
      "Ġbott": 1594,
      "Ġcandy": 1595,
      "ze": 1596,
      "Ġbigger": 1597,
      "Ġreach": 1598,
      "Ġblank": 1599,
      "Ġgrateful": 1600,
      "ph": 1601,
      "Ġele": 1602,
      "Ġsuch": 1603,
      "fort": 1604,
      "Ġplant": 1605,
      "ĠAll": 1606,
      "Ġsmart": 1607,
      "Ġpro": 1608,
      "less": 1609,
      "Ġpot": 1610,
      "Ġcho": 1611,
      "Ġtrain": 1612,
      "Ġtreasure": 1613,
      "Ġblanket": 1614,
      "Ġsnack": 1615,
      "ire": 1616,
      "Ġscream": 1617,
      "Ġdangerous": 1618,
      "Ġmagical": 1619,
      "Ġmonster": 1620,
      "Ġblack": 1621,
      "Ġwin": 1622,
      "Ġbar": 1623,
      "Ġriver": 1624,
      "outh": 1625,
      "Ġdragon": 1626,
      "Ġve": 1627,
      "Ġnap": 1628,
      "Ġtower": 1629,
      "Ġmouth": 1630,
      "Ġjoin": 1631,
      "Ġprincess": 1632,
      "Sure": 1633,
      "ear": 1634,
      "cked": 1635,
      "Ġem": 1636,
      "Ġeverywhere": 1637,
      "Ġdolls": 1638,
      "Ġhelping": 1639,
      "Ġje": 1640,
      "Ġmost": 1641,
      "ipped": 1642,
      "Ġmonkey": 1643,
      "Ġacross": 1644,
      "Ġdisapp": 1645,
      "Ġtwins": 1646,
      "ming": 1647,
      "Ġthrew": 1648,
      "Ġfarmer": 1649,
      "Ġsign": 1650,
      "set": 1651,
      "Ġdoctor": 1652,
      "de": 1653,
      "Ġstepped": 1654,
      "Ġsame": 1655,
      "Ġdirty": 1656,
      "Ġheavy": 1657,
      "ored": 1658,
      "Ġbee": 1659,
      "Why": 1660,
      "Ġcrying": 1661,
      "Ġfruit": 1662,
      "Ġbite": 1663,
      "eared": 1664,
      "Hi": 1665,
      "ĠDaddy": 1666,
      "Ġcarrot": 1667,
      "Ġwords": 1668,
      "Ġbowl": 1669,
      "Mia": 1670,
      "Ġhoped": 1671,
      "Ġheal": 1672,
      "Ġstre": 1673,
      "bble": 1674,
      "Ġheart": 1675,
      "Ġclosed": 1676,
      "ere": 1677,
      "Ġpass": 1678,
      "Ġspr": 1679,
      "Ġhig": 1680,
      "ĠFl": 1681,
      "Ġbelieve": 1682,
      "Ġwouldn": 1683,
      "Ġbath": 1684,
      "ĠMr": 1685,
      "ident": 1686,
      "Ġstuck": 1687,
      "Ġteac": 1688,
      "Ġacc": 1689,
      "Ġtown": 1690,
      "asket": 1691,
      "Ġbasket": 1692,
      "ĠJill": 1693,
      "Ġcour": 1694,
      "chool": 1695,
      "Ġfeels": 1696,
      "Ġbutt": 1697,
      "ĠMolly": 1698,
      "Ġbuck": 1699,
      "Ġcray": 1700,
      "Ġmix": 1701,
      "Ġatt": 1702,
      "Ġbrown": 1703,
      "Ġcoll": 1704,
      "iting": 1705,
      "Ġsuddenly": 1706,
      "Ġfairy": 1707,
      "Ġschool": 1708,
      "Ġchair": 1709,
      "Ġeating": 1710,
      "Ġcourse": 1711,
      "Ġpushed": 1712,
      "Ġclapped": 1713,
      "Ġgentle": 1714,
      "ord": 1715,
      "ventually": 1716,
      "Ġmin": 1717,
      "Ġpack": 1718,
      "Ġhit": 1719,
      "pping": 1720,
      "Ġpers": 1721,
      "Ġneigh": 1722,
      "issed": 1723,
      "ts": 1724,
      "Ġwithout": 1725,
      "Ġstand": 1726,
      "Ġneighb": 1727,
      "Ġpocket": 1728,
      "ors": 1729,
      "Ġhigher": 1730,
      "Ġwelcome": 1731,
      "Ġteacher": 1732,
      "Ġdrove": 1733,
      "Ġswings": 1734,
      "orrow": 1735,
      "Ġyard": 1736,
      "Ġsmo": 1737,
      "ier": 1738,
      "Ġtoday": 1739,
      "Ġnoises": 1740,
      "Ġforget": 1741,
      "Ġcheered": 1742,
      "ourn": 1743,
      "Ġgames": 1744,
      "ho": 1745,
      "Ġben": 1746,
      "Ġwings": 1747,
      "Ġjourn": 1748,
      "br": 1749,
      "Ġneck": 1750,
      "Ġturns": 1751,
      "Ġpiece": 1752,
      "umb": 1753,
      "ract": 1754,
      "Lila": 1755,
      "Ġlonger": 1756,
      "Ġdry": 1757,
      "Ġfree": 1758,
      "Ġsang": 1759,
      "vel": 1760,
      "Finally": 1761,
      "ead": 1762,
      "Ġhugs": 1763,
      "Ġexplained": 1764,
      "ible": 1765,
      "oun": 1766,
      "Ġinst": 1767,
      "Ġcorn": 1768,
      "phant": 1769,
      "cy": 1770,
      "Ġhappen": 1771,
      "Ġaccident": 1772,
      "Ġalong": 1773,
      "Ġthrow": 1774,
      "Ġlate": 1775,
      "Ġshoes": 1776,
      "Ġmiss": 1777,
      "Ġwell": 1778,
      "ches": 1779,
      "Ġyoung": 1780,
      "Ġlon": 1781,
      "Ġtrou": 1782,
      "ment": 1783,
      "itting": 1784,
      "Ġsea": 1785,
      "Ġsecret": 1786,
      "Ġstories": 1787,
      "ĠMary": 1788,
      "Ġshap": 1789,
      "Ġelephant": 1790,
      "Ġwish": 1791,
      "Ġpurp": 1792,
      "Ġsinging": 1793,
      "Ġlonely": 1794,
      "Ġadventures": 1795,
      "Ġshook": 1796,
      "Ġfence": 1797,
      "Ġmoved": 1798,
      "Ġstars": 1799,
      "ek": 1800,
      "Ġlunch": 1801,
      "Ġdist": 1802,
      "Ġupset": 1803,
      "Ġapple": 1804,
      "Ġstar": 1805,
      "Ġbelong": 1806,
      "bby": 1807,
      "Ġph": 1808,
      "aughty": 1809,
      "Ġmine": 1810,
      "Ġnaughty": 1811,
      "Ġkey": 1812,
      "Ġrocks": 1813,
      "Ġplac": 1814,
      "Ġtom": 1815,
      "Ġnearby": 1816,
      "Ġcaught": 1817,
      "Do": 1818,
      "fused": 1819,
      "Ġstreet": 1820,
      "Ġwhe": 1821,
      "ĠGrandma": 1822,
      "Ġshop": 1823,
      "ountain": 1824,
      "Ġexploring": 1825,
      "Ġdropped": 1826,
      "yard": 1827,
      "Ġpurple": 1828,
      "ocked": 1829,
      "Ġexp": 1830,
      "Ġwise": 1831,
      "Ġjar": 1832,
      "Ġbring": 1833,
      "Ġbackyard": 1834,
      "bow": 1835,
      "Ġtaking": 1836,
      "llo": 1837,
      "Ġorange": 1838,
      "ail": 1839,
      "Ġswam": 1840,
      "Ġsoup": 1841,
      "ub": 1842,
      "Ġshapes": 1843,
      "ces": 1844,
      "ward": 1845,
      "Ġseemed": 1846,
      "aughter": 1847,
      "Ġinv": 1848,
      "Ġowl": 1849,
      "Ġfarm": 1850,
      "Ġdrink": 1851,
      "Ġes": 1852,
      "Ġpast": 1853,
      "Ġresp": 1854,
      "Ġbucket": 1855,
      "Ġyear": 1856,
      "Ġca": 1857,
      "Ġrelie": 1858,
      "Ġmail": 1859,
      "ush": 1860,
      "ions": 1861,
      "ĠEmma": 1862,
      "Ġstu": 1863,
      "Ġbench": 1864,
      "ĠThank": 1865,
      "Ġaf": 1866,
      "Ġbat": 1867,
      "Ġbusy": 1868,
      "adow": 1869,
      "ung": 1870,
      "Ġdes": 1871,
      "Ġtakes": 1872,
      "Ġmad": 1873,
      "Ġnothing": 1874,
      "Ġthough": 1875,
      "Ġ3": 1876,
      "Ġnose": 1877,
      "Ġjuice": 1878,
      "And": 1879,
      "Ġsounds": 1880,
      "Ġwoke": 1881,
      "sy": 1882,
      "ity": 1883,
      "Ġarms": 1884,
      "Ġtiny": 1885,
      "Ġcomes": 1886,
      "ese": 1887,
      "fish": 1888,
      "Ġdaughter": 1889,
      "Ġwondered": 1890,
      "cing": 1891,
      "Ġcou": 1892,
      "cks": 1893,
      "Ġrainbow": 1894,
      "Ġmark": 1895,
      "Ġholding": 1896,
      "Ġnest": 1897,
      "ĠO": 1898,
      "Ġcow": 1899,
      "col": 1900,
      "Ġfit": 1901,
      "thday": 1902,
      "Ġsitting": 1903,
      "to": 1904,
      "Ġbranch": 1905,
      "Ġboun": 1906,
      "ining": 1907,
      "Ġcir": 1908,
      "Ġpig": 1909,
      "read": 1910,
      "ose": 1911,
      "Ġsick": 1912,
      "ĠFluffy": 1913,
      "raid": 1914,
      "ĠInside": 1915,
      "Ġob": 1916,
      "Ġafraid": 1917,
      "weet": 1918,
      "Ġcoat": 1919,
      "Ġpatient": 1920,
      "Ġkite": 1921,
      "Ġround": 1922,
      "Ġgift": 1923,
      "pper": 1924,
      "Ġdriver": 1925,
      "Ġmil": 1926,
      "Ġcute": 1927,
      "vered": 1928,
      "Ġforever": 1929,
      "Ġtou": 1930,
      "Ġtouched": 1931,
      "Ġpeace": 1932,
      "Ġrelieved": 1933,
      "Ġlift": 1934,
      "Ġpromise": 1935,
      "ours": 1936,
      "idge": 1937,
      "Ġbread": 1938,
      "Ġking": 1939,
      "Ġspoon": 1940,
      "Ġhuge": 1941,
      "Ġletter": 1942,
      "ĠCome": 1943,
      "Ġhello": 1944,
      "Ġgrab": 1945,
      "Ġcarry": 1946,
      "Of": 1947,
      "sting": 1948,
      "Ġfing": 1949,
      "Ġbirthday": 1950,
      "Ġband": 1951,
      "eth": 1952,
      "og": 1953,
      "Ġact": 1954,
      "ittens": 1955,
      "Ġcheese": 1956,
      "ĠFinally": 1957,
      "Ġpower": 1958,
      "ĠMama": 1959,
      "Ġintere": 1960,
      "let": 1961,
      "Ġexciting": 1962,
      "cer": 1963,
      "Ġdays": 1964,
      "Hey": 1965,
      "Ġswimming": 1966,
      "Ġshell": 1967,
      "Ġwhist": 1968,
      "unt": 1969,
      "Ġonto": 1970,
      "sc": 1971,
      "Ġgigg": 1972,
      "board": 1973,
      "Ġjourney": 1974,
      "Ġcraw": 1975,
      "Ġlaughing": 1976,
      "Ġcreature": 1977,
      "Ġwra": 1978,
      "Ġsunny": 1979,
      "Ġlife": 1980,
      "Ġkick": 1981,
      "Ġmist": 1982,
      "Ġdisco": 1983,
      "shine": 1984,
      "Ġcomfort": 1985,
      "Ġwom": 1986,
      "arp": 1987,
      "Ġret": 1988,
      "Ġwoman": 1989,
      "Ġhope": 1990,
      "ped": 1991,
      "itch": 1992,
      "gged": 1993,
      "Ġbush": 1994,
      "Ġgives": 1995,
      "Ġinstead": 1996,
      "Ġcozy": 1997,
      "Ġmilk": 1998,
      "Ġputs": 1999,
      "alm": 2000,
      "Ġbottle": 2001,
      "Ġinc": 2002,
      "gg": 2003,
      "Ġsharp": 2004,
      "Ġpointed": 2005,
      "Ġimag": 2006,
      "Ġspin": 2007,
      "ten": 2008,
      "Tommy": 2009,
      "ĠSoon": 2010,
      "Ġlucky": 2011,
      "Ġsunshine": 2012,
      "Ġear": 2013,
      "ness": 2014,
      "Ġcave": 2015,
      "Ġreturn": 2016,
      "Ġwatching": 2017,
      "Ġcollect": 2018,
      "Ġducks": 2019,
      "Ġpudd": 2020,
      "ĠSammy": 2021,
      "Ġaccidentally": 2022,
      "Ġhor": 2023,
      "Ġeas": 2024,
      "Ġlater": 2025,
      "Ġsmiling": 2026,
      "Ġsuc": 2027,
      "ball": 2028,
      "Ġhoney": 2029,
      "Ġroad": 2030,
      "Ġanyone": 2031,
      "Ġfan": 2032,
      "Ġspo": 2033,
      "Ġent": 2034,
      "blem": 2035,
      "Ġproblem": 2036,
      "Later": 2037,
      "ndp": 2038,
      "Ġbought": 2039,
      "els": 2040,
      "Ġtalked": 2041,
      "Bob": 2042,
      "itten": 2043,
      "ize": 2044,
      "Ġgather": 2045,
      "round": 2046,
      "Ġsearched": 2047,
      "Ġapples": 2048,
      "Ġperson": 2049,
      "Good": 2050,
      "Ġsandw": 2051,
      "Ġhealthy": 2052,
      "Ġce": 2053,
      "Ġmeet": 2054,
      "irt": 2055,
      "Ġtrouble": 2056,
      "Ġloves": 2057,
      "Ġcrayons": 2058,
      "Ġrope": 2059,
      "Ġinteresting": 2060,
      "Ġpop": 2061,
      "Ġclouds": 2062,
      "ont": 2063,
      "Ġtasty": 2064,
      "Ġsu": 2065,
      "Ġkiss": 2066,
      "Ġbutton": 2067,
      "Ġclever": 2068,
      "Ġplane": 2069,
      "amed": 2070,
      "Ġsmelled": 2071,
      "Ġadm": 2072,
      "ove": 2073,
      "Ġpile": 2074,
      "Ġwide": 2075,
      "eb": 2076,
      "Ġmach": 2077,
      "ĠTweet": 2078,
      "Ġmatter": 2079,
      "Ġzoom": 2080,
      "Lucy": 2081,
      "ÅĵI": 2082,
      "Ġpres": 2083,
      "Ġshining": 2084,
      "owed": 2085,
      "Ġpar": 2086,
      "Ġfront": 2087,
      "Ġorgan": 2088,
      "Ġprot": 2089,
      "ĠWith": 2090,
      "Ġfeather": 2091,
      "Ġeag": 2092,
      "aur": 2093,
      "Ġpath": 2094,
      "Ġvill": 2095,
      "ĠJimmy": 2096,
      "Ġstorm": 2097,
      "Ġspotted": 2098,
      "Ġrespect": 2099,
      "Ġscreamed": 2100,
      "Ġprotect": 2101,
      "Ġmud": 2102,
      "ĠEll": 2103,
      "Ġpract": 2104,
      "ndpa": 2105,
      "Ġzoo": 2106,
      "Come": 2107,
      "Ġpuzz": 2108,
      "Ġsaf": 2109,
      "Ġap": 2110,
      "Ġspid": 2111,
      "erly": 2112,
      "Ġval": 2113,
      "Ġsnake": 2114,
      "isa": 2115,
      "Ġmyster": 2116,
      "Ġasleep": 2117,
      "Ġlovely": 2118,
      "epend": 2119,
      "Ġbark": 2120,
      "Ġquest": 2121,
      "Ġwild": 2122,
      "Ġneighbor": 2123,
      "Ġappeared": 2124,
      "Ġanswer": 2125,
      "Ġseat": 2126,
      "ale": 2127,
      "Ġhorse": 2128,
      "Ġsnowman": 2129,
      "Ġpresent": 2130,
      "Ġdanced": 2131,
      "Ġcard": 2132,
      "Ġteach": 2133,
      "Ġhon": 2134,
      "oose": 2135,
      "Ġwhich": 2136,
      "Ġminut": 2137,
      "Ġpill": 2138,
      "Ġsur": 2139,
      "ĠSomet": 2140,
      "Ġcheer": 2141,
      "Ġthin": 2142,
      "ert": 2143,
      "Jim": 2144,
      "Ġgoes": 2145,
      "een": 2146,
      "ond": 2147,
      "ex": 2148,
      "Just": 2149,
      "Ġwhole": 2150,
      "Ġtries": 2151,
      "St": 2152,
      "Ġgently": 2153,
      "Ġforgive": 2154,
      "Ġwearing": 2155,
      "Ġmed": 2156,
      "ching": 2157,
      "ular": 2158,
      "Ġconfused": 2159,
      "Ġdi": 2160,
      "Molly": 2161,
      "Ġphone": 2162,
      "Ġcorner": 2163,
      "Ġplaces": 2164,
      "Ġimpress": 2165,
      "Ġgiant": 2166,
      "Ġrolled": 2167,
      "Every": 2168,
      "Ġteeth": 2169,
      "Ġdirt": 2170,
      "Ġtrip": 2171,
      "Ġmind": 2172,
      "Mum": 2173,
      "Ġrude": 2174,
      "Ġshr": 2175,
      "cean": 2176,
      "Ġslid": 2177,
      "Ġocean": 2178,
      "Ġlive": 2179,
      "ĠGo": 2180,
      "Ġspent": 2181,
      "itty": 2182,
      "izz": 2183,
      "Ġpretended": 2184,
      "Ġdrive": 2185,
      "Ġworm": 2186,
      "ĠEmily": 2187,
      "Ġash": 2188,
      "ssed": 2189,
      "Ġtasted": 2190,
      "ĠHow": 2191,
      "Ġsupp": 2192,
      "In": 2193,
      "Ġsplas": 2194,
      "Ġcookie": 2195,
      "Ġcalm": 2196,
      "la": 2197,
      "Ġfaces": 2198,
      "Ġlad": 2199,
      "Ġser": 2200,
      "Ġoven": 2201,
      "Ġpour": 2202,
      "nic": 2203,
      "Ġdelight": 2204,
      "Ġlay": 2205,
      "ĠMittens": 2206,
      "Ġcoin": 2207,
      "Ġlast": 2208,
      "Ġpicnic": 2209,
      "Ġwave": 2210,
      "Ġfurry": 2211,
      "Ġpan": 2212,
      "Ġfeet": 2213,
      "Ġrec": 2214,
      "ato": 2215,
      "Ġmachine": 2216,
      "Ġring": 2217,
      "Ġchick": 2218,
      "ones": 2219,
      "unk": 2220,
      "Ġhelpful": 2221,
      "Ġwip": 2222,
      "Ġeventually": 2223,
      "Ġban": 2224,
      "Ġpush": 2225,
      "Ġemb": 2226,
      "Ġremind": 2227,
      "Ġbubble": 2228,
      "ĠCh": 2229,
      "umber": 2230,
      "Ġladder": 2231,
      "Ġtomorrow": 2232,
      "Ġsack": 2233,
      "Ġcart": 2234,
      "Ġign": 2235,
      "Ġsal": 2236,
      "Ġrep": 2237,
      "Ġcouch": 2238,
      "Ġbell": 2239,
      "Ġtun": 2240,
      "Ġtid": 2241,
      "Ġneckl": 2242,
      "Ġspread": 2243,
      "Ġblew": 2244,
      "Ġspider": 2245,
      "Ġbuilding": 2246,
      "ator": 2247,
      "Ġstret": 2248,
      "Ġbugs": 2249,
      "arge": 2250,
      "Ġtool": 2251,
      "Ġsmooth": 2252,
      "Ġtalking": 2253,
      "Ġchocol": 2254,
      "Ġrob": 2255,
      "Ġfoot": 2256,
      "Ġsel": 2257,
      "Ġshy": 2258,
      "Ġhiding": 2259,
      "hile": 2260,
      "Ġmountain": 2261,
      "Ġknee": 2262,
      "ighed": 2263,
      "Ġfold": 2264,
      "als": 2265,
      "mo": 2266,
      "arra": 2267,
      "Ġchased": 2268,
      "Ġfighting": 2269,
      "ife": 2270,
      "Ġsongs": 2271,
      "not": 2272,
      "Soon": 2273,
      "Ġembarra": 2274,
      "Ġwore": 2275,
      "Ġleaf": 2276,
      "Ġpool": 2277,
      "Ġwrite": 2278,
      "Ġpuddle": 2279,
      "Ġvillage": 2280,
      "Ġwaiting": 2281,
      "Ġcannot": 2282,
      "Ġwhenever": 2283,
      "Ġant": 2284,
      "Ġfinish": 2285,
      "Ġstep": 2286,
      "Ġcloth": 2287,
      "My": 2288,
      "Ġtreats": 2289,
      "Ġhum": 2290,
      "lex": 2291,
      "ĠJenny": 2292,
      "Ġcross": 2293,
      "Ġpaw": 2294,
      "Ġmaybe": 2295,
      "Ġselfish": 2296,
      "Ġrobot": 2297,
      "Ġbanan": 2298,
      "ĠSometimes": 2299,
      "oph": 2300,
      "Ġtaste": 2301,
      "Ġchocolate": 2302,
      "Ġcoo": 2303,
      "box": 2304,
      "ult": 2305,
      "Ġstring": 2306,
      "ĠJust": 2307,
      "Ġbarked": 2308,
      "Ġspe": 2309,
      "ĠEverywhere": 2310,
      "Ġlarge": 2311,
      "Ġnet": 2312,
      "ĠSt": 2313,
      "Please": 2314,
      "Ġpeaceful": 2315,
      "Ġtidy": 2316,
      "Ġstra": 2317,
      "Mama": 2318,
      "Ġsol": 2319,
      "Ġcolour": 2320,
      "Ġwash": 2321,
      "umpy": 2322,
      "Ġgen": 2323,
      "elly": 2324,
      "Ġnecklace": 2325,
      "Ġple": 2326,
      "Ġfixed": 2327,
      "Ġshelf": 2328,
      "lice": 2329,
      "old": 2330,
      "Ġstone": 2331,
      "ĠPlease": 2332,
      "hnn": 2333,
      "Ġscar": 2334,
      "Ġspray": 2335,
      "lebr": 2336,
      "Ġ'": 2337,
      "arm": 2338,
      "Ġstir": 2339,
      "Dad": 2340,
      "ĠLe": 2341,
      "Ġcelebr": 2342,
      "orry": 2343,
      "ĠJake": 2344,
      "oin": 2345,
      "ĠTV": 2346,
      "iger": 2347,
      "ungle": 2348,
      "ird": 2349,
      "Ġmissed": 2350,
      "Now": 2351,
      "Ġdeter": 2352,
      "Ġcrab": 2353,
      "Ġhears": 2354,
      "Ġcreative": 2355,
      "ĠTheir": 2356,
      "Ġembarrassed": 2357,
      "Ġtrust": 2358,
      "Ġjungle": 2359,
      "Ġforward": 2360,
      "airs": 2361,
      "Ġwhis": 2362,
      "Ġdeterm": 2363,
      "Ġjumping": 2364,
      "hnny": 2365,
      "ĠSome": 2366,
      "Ġsticks": 2367,
      "urse": 2368,
      "Ġcarrots": 2369,
      "Ġsharing": 2370,
      "Ġhel": 2371,
      "Ġlanded": 2372,
      "Ġwhistle": 2373,
      "Ġplate": 2374,
      "most": 2375,
      "Ġshirt": 2376,
      "Ġdisappoin": 2377,
      "Ġtells": 2378,
      "Ġknocked": 2379,
      "Ġtea": 2380,
      "ned": 2381,
      "ets": 2382,
      "ian": 2383,
      "ĠAnn": 2384,
      "Ġmoon": 2385,
      "Ġlegs": 2386,
      "Ġdecor": 2387,
      "Ġalmost": 2388,
      "ĠDon": 2389,
      "Ġsour": 2390,
      "Ġemp": 2391,
      "Ġashamed": 2392,
      "Ġempty": 2393,
      "getable": 2394,
      "dge": 2395,
      "Ġgrew": 2396,
      "ground": 2397,
      "Ġvegetable": 2398,
      "Ġgray": 2399,
      "Ġsheep": 2400,
      "ĠLisa": 2401,
      "Ġgener": 2402,
      "Ġbreath": 2403,
      "ying": 2404,
      "Ġsplash": 2405,
      "Sarah": 2406,
      "Ġmeant": 2407,
      "Be": 2408,
      "Ġtightly": 2409,
      "Ġpolice": 2410,
      "aking": 2411,
      "Ġsave": 2412,
      "Ġmeadow": 2413,
      "erp": 2414,
      "Ġgas": 2415,
      "Ġbal": 2416,
      "Ġstood": 2417,
      "Ġwhisp": 2418,
      "ĠWhy": 2419,
      "Ġyelled": 2420,
      "dle": 2421,
      "Ġjew": 2422,
      "Ġunderstood": 2423,
      "To": 2424,
      "Ġnods": 2425,
      "ĠOn": 2426,
      "Ġhonest": 2427,
      "Ġthese": 2428,
      "ital": 2429,
      "Ġber": 2430,
      "Ġdisappointed": 2431,
      "Ġpay": 2432,
      "Ġcarried": 2433,
      "Ġsnacks": 2434,
      "arl": 2435,
      "Ġsuccess": 2436,
      "den": 2437,
      "Ġpillow": 2438,
      "Ġhosp": 2439,
      "Ġseek": 2440,
      "Ġkitten": 2441,
      "Ġhours": 2442,
      "Ġhospital": 2443,
      "ustr": 2444,
      "Ġgold": 2445,
      "Ġgun": 2446,
      "Ġsparkly": 2447,
      "Ġship": 2448,
      "ĠTeddy": 2449,
      "Ġbored": 2450,
      "Stop": 2451,
      "Ġline": 2452,
      "Ġnut": 2453,
      "ork": 2454,
      "Ġpizz": 2455,
      "vous": 2456,
      "Ġlem": 2457,
      "Ġpowerful": 2458,
      "Ġspicy": 2459,
      "Where": 2460,
      "obby": 2461,
      "kin": 2462,
      "Ġshore": 2463,
      "Ġplants": 2464,
      "ano": 2465,
      "ĠEven": 2466,
      "Ġbedroom": 2467,
      "Ġgenerous": 2468,
      "Ġfrustr": 2469,
      "Ġtest": 2470,
      "Ġpuzzle": 2471,
      "Ġhidden": 2472,
      "Ġjelly": 2473,
      "body": 2474,
      "ĠBe": 2475,
      "ĠTogether": 2476,
      "ony": 2477,
      "hin": 2478,
      "ina": 2479,
      "Ġtaught": 2480,
      "Ġeasy": 2481,
      "Ġdrew": 2482,
      "Ġwaves": 2483,
      "ĠZ": 2484,
      "Ġglass": 2485,
      "Ġreturned": 2486,
      "Ġfear": 2487,
      "Ġmysterious": 2488,
      "iff": 2489,
      "Ġsighed": 2490,
      "ĠMum": 2491,
      "Ġstanding": 2492,
      "Ġmot": 2493,
      "Ġfeed": 2494,
      "Ġseed": 2495,
      "Ġscarf": 2496,
      "Ġdetermined": 2497,
      "Ġpin": 2498,
      "Ġclass": 2499,
      "ĠRex": 2500,
      "Ġknowing": 2501,
      "Ġgroup": 2502,
      "Ġblow": 2503,
      "Ġkissed": 2504,
      "cles": 2505,
      "Ġchew": 2506,
      "Ġpizza": 2507,
      "itter": 2508,
      "Ġvan": 2509,
      "Ġhur": 2510,
      "Ġthankful": 2511,
      "erpill": 2512,
      "Ġcaterpill": 2513,
      "Ġpolite": 2514,
      "Ġfinger": 2515,
      "Ġav": 2516,
      "Ġcries": 2517,
      "Ġsleepy": 2518,
      "Ġmessy": 2519,
      "Ġner": 2520,
      "Ġfrustrated": 2521,
      "Ġpri": 2522,
      "Ġcloset": 2523,
      "gly": 2524,
      "Ġyourself": 2525,
      "aul": 2526,
      "Jane": 2527,
      "Ġminutes": 2528,
      "'d": 2529,
      "Ġtears": 2530,
      "Ġfancy": 2531,
      "Ġhang": 2532,
      "Sorry": 2533,
      "Ġburn": 2534,
      "There": 2535,
      "Ġugly": 2536,
      "Ġsold": 2537,
      "Ġpoor": 2538,
      "work": 2539,
      "Ġnervous": 2540,
      "Ġgate": 2541,
      "Ġsandwich": 2542,
      "Ġrad": 2543,
      "Ġprince": 2544,
      "ĠPeter": 2545,
      "Ġwis": 2546,
      "Ġcrown": 2547,
      "Ġfig": 2548,
      "era": 2549,
      "Ġlock": 2550,
      "Ġesc": 2551,
      "Ġreg": 2552,
      "Ġspoil": 2553,
      "usie": 2554,
      "Ġgrumpy": 2555,
      "oof": 2556,
      "Ġwolf": 2557,
      "Are": 2558,
      "Ġpir": 2559,
      "oop": 2560,
      "Ġpassed": 2561,
      "Ġtick": 2562,
      "pack": 2563,
      "Ġtwirl": 2564,
      "ote": 2565,
      "Ġhopping": 2566,
      "Ġgathered": 2567,
      "Ġexcite": 2568,
      "Ġscr": 2569,
      "Ġbridge": 2570,
      "af": 2571,
      "Ġoften": 2572,
      "iddle": 2573,
      "Ġmummy": 2574,
      "fl": 2575,
      "Ġflag": 2576,
      "ensive": 2577,
      "Ġchest": 2578,
      "Ġdrop": 2579,
      "osaur": 2580,
      "Ġexpensive": 2581,
      "selves": 2582,
      "Ġcaterpillar": 2583,
      "Ġboring": 2584,
      "Ġvase": 2585,
      "Ġtent": 2586,
      "issors": 2587,
      "Ġtaken": 2588,
      "illed": 2589,
      "sist": 2590,
      "Their": 2591,
      "Ġmir": 2592,
      "Ġpress": 2593,
      "Ġlit": 2594,
      "Ġleg": 2595,
      "mb": 2596,
      "Ġsaved": 2597,
      "Ġcand": 2598,
      "Ġscissors": 2599,
      "izzy": 2600,
      "Ġfil": 2601,
      "Ġdinosaur": 2602,
      "Ġgets": 2603,
      "Ġdancing": 2604,
      "Ġanswered": 2605,
      "Ġtrue": 2606,
      "Ġpicks": 2607,
      "Ġexcitement": 2608,
      "Ġworking": 2609,
      "Ġdeer": 2610,
      "Ġones": 2611,
      "Ġspend": 2612,
      "Who": 2613,
      "ual": 2614,
      "Ġmistake": 2615,
      "Ġclown": 2616,
      "Ġwagged": 2617,
      "uce": 2618,
      "Ġmiddle": 2619,
      "Ġboss": 2620,
      "ĠBr": 2621,
      "Ġfruits": 2622,
      "ror": 2623,
      "que": 2624,
      "ella": 2625,
      "Ġgiggled": 2626,
      "Ġwander": 2627,
      "Ġtie": 2628,
      "Ġcomfortable": 2629,
      "Ġpleased": 2630,
      "ser": 2631,
      "ecially": 2632,
      "Ġbrush": 2633,
      "light": 2634,
      "Ġmov": 2635,
      "Ġknight": 2636,
      "ĠOK": 2637,
      "ates": 2638,
      "Ġmedic": 2639,
      "Ġrocket": 2640,
      "ĠLeo": 2641,
      "Ġpacked": 2642,
      "Ġasking": 2643,
      "ugar": 2644,
      "Ġok": 2645,
      "Ġbone": 2646,
      "Ġmatch": 2647,
      "Sp": 2648,
      "pecially": 2649,
      "ots": 2650,
      "Ġstuff": 2651,
      "Ġespecially": 2652,
      "Ġdrum": 2653,
      "Ġdest": 2654,
      "Ġsight": 2655,
      "iness": 2656,
      "Ġwalks": 2657,
      "Ġvegetables": 2658,
      "ĠNo": 2659,
      "Ġnumber": 2660,
      "Ġdogs": 2661,
      "Ġmedicine": 2662,
      "Jimmy": 2663,
      "Ġdistance": 2664,
      "Ġadd": 2665,
      "ushed": 2666,
      "Ġdrawing": 2667,
      "Ġcalling": 2668,
      "Ġsmelly": 2669,
      "ggs": 2670,
      "Ġlazy": 2671,
      "Ġchange": 2672,
      "Ġclap": 2673,
      "Ġlose": 2674,
      "Ġtape": 2675,
      "Ġsugar": 2676,
      "Ġweak": 2677,
      "Ġcap": 2678,
      "Ġfake": 2679,
      "Ġeggs": 2680,
      "Ġtwist": 2681,
      "Ġmoving": 2682,
      "Ġmirror": 2683,
      "ĠJohnny": 2684,
      "Ġplayground": 2685,
      "ĠBl": 2686,
      "Ġdisappeared": 2687,
      "ha": 2688,
      "aged": 2689,
      "Ġglue": 2690,
      "Ġlying": 2691,
      "Ġgar": 2692,
      "Ġbecome": 2693,
      "Ġlicked": 2694,
      "ĠIf": 2695,
      "Ġweek": 2696,
      "Ġcage": 2697,
      "ete": 2698,
      "Ġexam": 2699,
      "ory": 2700,
      "Ġsweetie": 2701,
      "Ġflut": 2702,
      "Ġfeathers": 2703,
      "Ġnod": 2704,
      "Ġwheel": 2705,
      "Ġhorn": 2706,
      "Ġfluffy": 2707,
      "elp": 2708,
      "Me": 2709,
      "Ġbake": 2710,
      "Ġruined": 2711,
      "Ġeld": 2712,
      "Ġdish": 2713,
      "Ġsplashed": 2714,
      "Ġdrank": 2715,
      "Ġbathroom": 2716,
      "Ġyours": 2717,
      "Ġrid": 2718,
      "Ġmeasure": 2719,
      "Ġlead": 2720,
      "Ġbody": 2721,
      "Ġfamous": 2722,
      "Ġrelax": 2723,
      "Ġroar": 2724,
      "Ġincred": 2725,
      "ating": 2726,
      "Ġnoisy": 2727,
      "Ġsell": 2728,
      "Ġqueen": 2729,
      "Ġquestions": 2730,
      "Ġmic": 2731,
      "Ġskipped": 2732,
      "uggest": 2733,
      "Ġed": 2734,
      "Ġsuggest": 2735,
      "Ġstones": 2736,
      "Ġlemon": 2737,
      "Ġballs": 2738,
      "Ġdecide": 2739,
      "Sally": 2740,
      "hip": 2741,
      "Ġcri": 2742,
      "Ġclear": 2743,
      "Ġmoms": 2744,
      "ination": 2745,
      "Ġext": 2746,
      "Ġjuicy": 2747,
      "yal": 2748,
      "Ġshows": 2749,
      "Ġcovered": 2750,
      "Ġord": 2751,
      "Ġcheck": 2752,
      "Ġlamp": 2753,
      "Ġglow": 2754,
      "Ġcontent": 2755,
      "Billy": 2756,
      "Joe": 2757,
      "Help": 2758,
      "Ġswan": 2759,
      "eez": 2760,
      "Ġpray": 2761,
      "Ġeager": 2762,
      "Ġrich": 2763,
      "Ġdig": 2764,
      "Ġwrote": 2765,
      "Ġtowel": 2766,
      "Ġmotor": 2767,
      "illi": 2768,
      "enny": 2769,
      "?\".": 2770,
      "Ġincredible": 2771,
      "Ġshoot": 2772,
      "Ġind": 2773,
      "ĠAt": 2774,
      "Ġsailed": 2775,
      "Ġteam": 2776,
      "alous": 2777,
      "Ġcleaned": 2778,
      "Jill": 2779,
      "Ġrare": 2780,
      "Ġsoap": 2781,
      "Ġjealous": 2782,
      "Ġfather": 2783,
      "Ġadventur": 2784,
      "Ġloyal": 2785,
      "Ġorganized": 2786,
      "Ġcoins": 2787,
      "Ġfine": 2788,
      "Ġboard": 2789,
      "Ġbranches": 2790,
      "Ġextra": 2791,
      "Ġboys": 2792,
      "Ġmap": 2793,
      "umbled": 2794,
      "Ġneeds": 2795,
      "Ġelderly": 2796,
      "ĠEnd": 2797,
      "Ġaw": 2798,
      "Ġborrow": 2799,
      "Ġfigure": 2800,
      "imp": 2801,
      "Ġadventurous": 2802,
      "Ġhurts": 2803,
      "Gra": 2804,
      "Ġcost": 2805,
      "Ġchicken": 2806,
      "Ġbubbles": 2807,
      "Ġdiscovered": 2808,
      "Ġmod": 2809,
      "keep": 2810,
      "Ġfis": 2811,
      "Ġham": 2812,
      "Ġfrown": 2813,
      "ĠLittle": 2814,
      "Ġtag": 2815,
      "Ġtiger": 2816,
      "Ġrealised": 2817,
      "Ġjoke": 2818,
      "land": 2819,
      "Ġgarage": 2820,
      "Well": 2821,
      "Ġoffered": 2822,
      "Ġhappening": 2823,
      "asing": 2824,
      "ately": 2825,
      "Ġcolourful": 2826,
      "Ġstraw": 2827,
      "ique": 2828,
      "ipper": 2829,
      "fic": 2830,
      "Ġcover": 2831,
      "Ġchase": 2832,
      "Amy": 2833,
      "Ġwand": 2834,
      "Ġlouder": 2835,
      "Ġarg": 2836,
      "Ġjewel": 2837,
      "cil": 2838,
      "Ġtrucks": 2839,
      "ti": 2840,
      "Ġhose": 2841,
      "Ġlifted": 2842,
      "Ġunique": 2843,
      "Ġpencil": 2844,
      "Ġeye": 2845,
      "Ġsword": 2846,
      "Ġdiffic": 2847,
      "cept": 2848,
      "Ġweird": 2849,
      "Ġpump": 2850,
      "ipp": 2851,
      "ured": 2852,
      "Ġyog": 2853,
      "Ġonce": 2854,
      "Ġbottom": 2855,
      "imed": 2856,
      "Ġsil": 2857,
      "Ġmanaged": 2858,
      "Ġword": 2859,
      "Ġbalance": 2860,
      "Ġknife": 2861,
      "Ġcircle": 2862,
      "Ġcrawled": 2863,
      "Ġthick": 2864,
      "Ġunus": 2865,
      "Ġtoug": 2866,
      "Ġhunt": 2867,
      "alk": 2868,
      "Ġmighty": 2869,
      "Ġdifficult": 2870,
      "Ġguess": 2871,
      "Sue": 2872,
      "Ġang": 2873,
      "Mummy": 2874,
      "Ġfright": 2875,
      "Ġwhale": 2876,
      "Ġbanana": 2877,
      "ĠKitty": 2878,
      "Ġbarn": 2879,
      "keeper": 2880,
      "Ġunusual": 2881,
      "port": 2882,
      "Ġkindness": 2883,
      "ages": 2884,
      "Ġgiving": 2885,
      "Ġfour": 2886,
      "aw": 2887,
      "Spot": 2888,
      "Ġberries": 2889,
      "Ġedge": 2890,
      "Ġdolp": 2891,
      "ĠBlue": 2892,
      "Ġlaughs": 2893,
      "iv": 2894,
      "Ġshake": 2895,
      "olog": 2896,
      "ĠSusie": 2897,
      "How": 2898,
      "Here": 2899,
      "Ġfool": 2900,
      "Ġrecord": 2901,
      "Ġharder": 2902,
      "rag": 2903,
      "Ġturt": 2904,
      "Ġadded": 2905,
      "Ġdizzy": 2906,
      "ym": 2907,
      "lla": 2908,
      "Ġlearning": 2909,
      "Ġwrapped": 2910,
      "Ġgoat": 2911,
      "head": 2912,
      "Ġapolog": 2913,
      "ĠMark": 2914,
      "Ġballoons": 2915,
      "ĠBrown": 2916,
      "ola": 2917,
      "Ġfavour": 2918,
      "Ġpointing": 2919,
      "Ġguit": 2920,
      "Ġvalu": 2921,
      "Ġtough": 2922,
      "ready": 2923,
      "Ġsmoke": 2924,
      "Ġspun": 2925,
      "Ġcab": 2926,
      "Ġboxes": 2927,
      "Ġhero": 2928,
      "Ġears": 2929,
      "Ġenjoying": 2930,
      "ject": 2931,
      "Ġgrown": 2932,
      "Ġhats": 2933,
      "Ġbelonged": 2934,
      "Ġloudly": 2935,
      "Ġmeans": 2936,
      "Ġcompet": 2937,
      "Ġdepend": 2938,
      "Ġnorm": 2939,
      "erry": 2940,
      "Ġmovie": 2941,
      "Ġharm": 2942,
      "Ġshape": 2943,
      "Ġmarket": 2944,
      "Ġisland": 2945,
      "Ġcircles": 2946,
      "Ġbloom": 2947,
      "Ġbald": 2948,
      "Ġimpressed": 2949,
      "Ġagainst": 2950,
      "Ġref": 2951,
      "rage": 2952,
      "Ġalready": 2953,
      "Ġsearch": 2954,
      "uggled": 2955,
      "Ġbrothers": 2956,
      "Ġbrilli": 2957,
      "Ġchoose": 2958,
      "Ġcabin": 2959,
      "Ġfavourite": 2960,
      "und": 2961,
      "lies": 2962,
      "Ġsaying": 2963,
      "Ġfalls": 2964,
      "Ġskin": 2965,
      "Ġflash": 2966,
      "ery": 2967,
      "Ġpainting": 2968,
      "Ġbuttons": 2969,
      "ature": 2970,
      "ĠBobby": 2971,
      "ye": 2972,
      "Ġbrilliant": 2973,
      "Ġclay": 2974,
      "pes": 2975,
      "Ġdreamed": 2976,
      "Ġsafely": 2977,
      "Ġhelps": 2978,
      "Ġgrace": 2979,
      "Ġter": 2980,
      "Ġtrunk": 2981,
      "Ġbossy": 2982,
      "ilt": 2983,
      "Ġstrawber": 2984,
      "anged": 2985,
      "ouses": 2986,
      "Ġnormal": 2987,
      "Ġscare": 2988,
      "Ġwrap": 2989,
      "Ġpee": 2990,
      "Ġbatter": 2991,
      "Ġguitar": 2992,
      "Ġstubb": 2993,
      "Ġjack": 2994,
      "emo": 2995,
      "ĠDan": 2996,
      "Ġcrayon": 2997,
      "Ġfat": 2998,
      "Ġcher": 2999,
      "fast": 3000,
      "Ġrough": 3001,
      "Ġslipped": 3002,
      "Ġmelt": 3003,
      "Ġknows": 3004,
      "Ġproudly": 3005,
      "Ġwagon": 3006,
      "Ġvaluable": 3007,
      "Ġhouses": 3008,
      "Ġcudd": 3009,
      "gy": 3010,
      "Ġlog": 3011,
      "Ġbreakfast": 3012,
      "Ġfrightened": 3013,
      "Ġfoolish": 3014,
      "Ġcheerful": 3015,
      "Ġstubborn": 3016,
      "ipe": 3017,
      "Ġcro": 3018,
      "Ġcompetit": 3019,
      "Ġescape": 3020,
      "Ġhappiness": 3021,
      "cient": 3022,
      "ĠMy": 3023,
      "Ġpil": 3024,
      "omed": 3025,
      "Ġlibr": 3026,
      "ĠToday": 3027,
      "Ġinvited": 3028,
      "Ġwake": 3029,
      "apping": 3030,
      "reen": 3031,
      "Ġfridge": 3032,
      "Ġnosy": 3033,
      "Ġstudy": 3034,
      "Ġlaw": 3035,
      "Ġancient": 3036,
      "Ġshark": 3037,
      "ĠEllie": 3038,
      "Ġnotice": 3039,
      "Ġbirdie": 3040,
      "Ġturtle": 3041,
      "Ġwalls": 3042,
      "Ġthu": 3043,
      "edient": 3044,
      "ĠFred": 3045,
      "Ġuseful": 3046,
      "Ġcity": 3047,
      "ext": 3048,
      "Ġspace": 3049,
      "Ġstri": 3050,
      "Ġdelicate": 3051,
      "Ġsounded": 3052,
      "az": 3053,
      "Ġterri": 3054,
      "Ġaccept": 3055,
      "orge": 3056,
      "Ġunl": 3057,
      "Ġtimes": 3058,
      "Ġicy": 3059,
      "wards": 3060,
      "Ġfier": 3061,
      "Ġwiped": 3062,
      "Ġtoast": 3063,
      "Ġdead": 3064,
      "Ġlights": 3065,
      "Ġlean": 3066,
      "Ġshells": 3067,
      "ĠRose": 3068,
      "Ġdesign": 3069,
      "Ġexcla": 3070,
      "Ġoffice": 3071,
      "Ġroof": 3072,
      "Ġdependable": 3073,
      "Ġfierce": 3074,
      "Ġdreams": 3075,
      "Ġexclaimed": 3076,
      "Ġmixed": 3077,
      "Ġnicely": 3078,
      "ĠBobo": 3079,
      "Ġtools": 3080,
      "Ġlocked": 3081,
      "Ġobedient": 3082,
      "Ġsuggested": 3083,
      "Ġfingers": 3084,
      "Ġbags": 3085,
      "Ġgrandpa": 3086,
      "Ġkinds": 3087,
      "Ġsmaller": 3088,
      "ache": 3089,
      "Ġcam": 3090,
      "Ġcounted": 3091,
      "arth": 3092,
      "Ġlab": 3093,
      "Ġstream": 3094,
      "Ġdough": 3095,
      "Ġrode": 3096,
      "Ġrose": 3097,
      "Ġparrot": 3098,
      "ĠMrs": 3099,
      "Ġstove": 3100,
      "Ġabove": 3101,
      "Ġexcitedly": 3102,
      "Ġtele": 3103,
      "Ġrat": 3104,
      "Ġweal": 3105,
      "Ġmem": 3106,
      "Ġpoured": 3107,
      "Ġlow": 3108,
      "corn": 3109,
      "Ġzip": 3110,
      "Ġbitter": 3111,
      "ention": 3112,
      "Ġstumbled": 3113,
      "kn": 3114,
      "ÅĵLet": 3115,
      "Ġjam": 3116,
      "Ġshadow": 3117,
      "Ġfountain": 3118,
      "Ġshowing": 3119,
      "na": 3120,
      "Ġscrat": 3121,
      "Ġcrack": 3122,
      "Ġsuccessful": 3123,
      "Ġegg": 3124,
      "eorge": 3125,
      "ado": 3126,
      "ĠPete": 3127,
      "Ġusing": 3128,
      "Ġbushes": 3129,
      "oot": 3130,
      "Ġexplored": 3131,
      "Ġwitch": 3132,
      "Ġcop": 3133,
      "Ġthemselves": 3134,
      "Ġbrightly": 3135,
      "arry": 3136,
      "Ġtomato": 3137,
      "Ġindepend": 3138,
      "Ġspinning": 3139,
      "uth": 3140,
      "Ġswe": 3141,
      "ither": 3142,
      "Ġfrag": 3143,
      "Ġresc": 3144,
      "Ġpractice": 3145,
      "Ġwhispered": 3146,
      "irp": 3147,
      "ĠElla": 3148,
      "Ġadmired": 3149,
      "inal": 3150,
      "Ġreminded": 3151,
      "Ġpumpkin": 3152,
      "Ġgem": 3153,
      "Em": 3154,
      "Ġtwig": 3155,
      "Ġcostum": 3156,
      "ĠTweety": 3157,
      "Ġjolly": 3158,
      "Ġshone": 3159,
      "Ġseem": 3160,
      "dom": 3161,
      "Ġorig": 3162,
      "Ġkicked": 3163,
      "Ġbounce": 3164,
      "Ġperform": 3165,
      "ĠYour": 3166,
      "Ġbuilt": 3167,
      "Ġsniff": 3168,
      "Ġstronger": 3169,
      "Ġways": 3170,
      "Ġmagn": 3171,
      "Ġdelighted": 3172,
      "ormous": 3173,
      "Ġpopcorn": 3174,
      "!\".": 3175,
      "Ġbump": 3176,
      "oppy": 3177,
      "Ġsteal": 3178,
      "Ġson": 3179,
      "Ġbeak": 3180,
      "Ġcleaning": 3181,
      "iable": 3182,
      "Ġenormous": 3183,
      "known": 3184,
      "Ġfre": 3185,
      "ĠU": 3186,
      "ines": 3187,
      "Ġspoiled": 3188,
      "Ġraced": 3189,
      "Ġenc": 3190,
      "Ġjoined": 3191,
      "vice": 3192,
      "Ġtummy": 3193,
      "Ġprint": 3194,
      "Ġthoughtful": 3195,
      "Ġaunt": 3196,
      "eeze": 3197,
      "Ġbees": 3198,
      "Ġfragile": 3199,
      "Ġdust": 3200,
      "Ġindependent": 3201,
      "ray": 3202,
      "Ġdove": 3203,
      "Ġeng": 3204,
      "Ġhoop": 3205,
      "Ġtunn": 3206,
      "Ġjog": 3207,
      "Ġplayful": 3208,
      "Ġhammer": 3209,
      "Ġchanged": 3210,
      "Ġreliable": 3211,
      "Ġoriginal": 3212,
      "amond": 3213,
      "ĠNemo": 3214,
      "ict": 3215,
      "anger": 3216,
      "Ġhelm": 3217,
      "anut": 3218,
      "Ġhanded": 3219,
      "Ġunknown": 3220,
      "upid": 3221,
      "Ġyarn": 3222,
      "cod": 3223,
      "Ġboats": 3224,
      "Ġrubb": 3225,
      "Ġsolve": 3226,
      "uring": 3227,
      "Ġdiamond": 3228,
      "Ġfinding": 3229,
      "Ġmetal": 3230,
      "Ġcone": 3231,
      "Ġbean": 3232,
      "ĠBu": 3233,
      "Ġleaving": 3234,
      "ĠAlice": 3235,
      "Ġpainted": 3236,
      "Ġchose": 3237,
      "Ġserious": 3238,
      "See": 3239,
      "atter": 3240,
      "inary": 3241,
      "Ġhalf": 3242,
      "gu": 3243,
      "Ġsink": 3244,
      "Ġpost": 3245,
      "Ġhairy": 3246,
      "Ġallowed": 3247,
      "Ġclum": 3248,
      "Ġholds": 3249,
      "Ġdoesn": 3250,
      "Ġloll": 3251,
      "Ġstat": 3252,
      "Ġacorn": 3253,
      "ipop": 3254,
      "Ġhay": 3255,
      "Ġthose": 3256,
      "ĠDucky": 3257,
      "Ġrub": 3258,
      "Ġcamera": 3259,
      "Ġcheap": 3260,
      "Ġmarble": 3261,
      "mbre": 3262,
      "Ġyet": 3263,
      "Ġumbre": 3264,
      "Ġcrocod": 3265,
      "ience": 3266,
      "Ġbeet": 3267,
      "Ġlollipop": 3268,
      "ĠMar": 3269,
      "Ġstupid": 3270,
      "ebra": 3271,
      "Ġcompass": 3272,
      "Ġgrand": 3273,
      "robe": 3274,
      "Ġopens": 3275,
      "Ġtelling": 3276,
      "Ġguard": 3277,
      "Ġforth": 3278,
      "Ġsleeping": 3279,
      "Ġwealthy": 3280,
      "Ġmis": 3281,
      "Ġsalad": 3282,
      "Ġpicking": 3283,
      "Ġbrace": 3284,
      "Ġstairs": 3285,
      "Ġgasped": 3286,
      "ĠMike": 3287,
      "Ġgoose": 3288,
      "Ġthirst": 3289,
      "ĠWhenever": 3290,
      "tern": 3291,
      "Ġsunfl": 3292,
      "Ġthunder": 3293,
      "ugged": 3294,
      "Ġtank": 3295,
      "Ġrushed": 3296,
      "iew": 3297,
      "ilty": 3298,
      "Ġarrow": 3299,
      "Ġenvel": 3300,
      "Ġguilty": 3301,
      "Ġangel": 3302,
      "Ġmoder": 3303,
      "Ġclumsy": 3304,
      "ision": 3305,
      "Ġpotato": 3306,
      "Ġterrible": 3307,
      "Ġzebra": 3308,
      "ÅĵYes": 3309,
      "Ġwashed": 3310,
      "Go": 3311,
      "Ġcur": 3312,
      "Ġtor": 3313,
      "Ġview": 3314,
      "Ġknock": 3315,
      "Ġthinking": 3316,
      "Ġbarber": 3317,
      "Ġbull": 3318,
      "Ġdolphin": 3319,
      "Ġrug": 3320,
      "Ġpeanut": 3321,
      "Ġprep": 3322,
      "ĠFin": 3323,
      "ĠBella": 3324,
      "Ġing": 3325,
      "Ġpopular": 3326,
      "Ġdull": 3327,
      "Ġpebble": 3328,
      "Ġmissing": 3329,
      "Ġsquare": 3330,
      "Ġpige": 3331,
      "Ġregular": 3332,
      "Ġthirsty": 3333,
      "Ġflex": 3334,
      "Ġadvice": 3335,
      "ÅĵWhat": 3336,
      "Ġsearching": 3337,
      "Ġingred": 3338,
      "Ġingredient": 3339,
      "Ġcreate": 3340,
      "Ġtem": 3341,
      "Ġmarch": 3342,
      "umbers": 3343,
      "Ġcareless": 3344,
      "Ġpersist": 3345,
      "Ġfresh": 3346,
      "Ġdeliver": 3347,
      "ations": 3348,
      "time": 3349,
      "Ġnurse": 3350,
      "com": 3351,
      "Ġrubbed": 3352,
      "Ġchar": 3353,
      "het": 3354,
      "Ġclock": 3355,
      "Ġmodern": 3356,
      "Ġstage": 3357,
      "illa": 3358,
      "Ġcompassion": 3359,
      "Ġstranger": 3360,
      "Ġsauce": 3361,
      "Ġload": 3362,
      "Ġsuit": 3363,
      "gest": 3364,
      "Ġshocked": 3365,
      "ibb": 3366,
      "Ġcarrying": 3367,
      "eezed": 3368,
      "Ġnature": 3369,
      "Ġdriving": 3370,
      "ĠGrandpa": 3371,
      "Ġflashlight": 3372,
      "uper": 3373,
      "Ġimpressive": 3374,
      "ĠSn": 3375,
      "Ġstops": 3376,
      "Ġpatch": 3377,
      "Ġgraceful": 3378,
      "Ġsne": 3379,
      "aghet": 3380,
      "aghetti": 3381,
      "oomy": 3382,
      "Ġshiver": 3383,
      "Ġshel": 3384,
      "Ġdestro": 3385,
      "Ġflexible": 3386,
      "Ow": 3387,
      "Ġfriendship": 3388,
      "Ġsparkled": 3389,
      "Ġbiggest": 3390,
      "fa": 3391,
      "Ġdreaming": 3392,
      "Mary": 3393,
      "Ġtied": 3394,
      "Ġending": 3395,
      "Ġengine": 3396,
      "Ġpirate": 3397,
      "Ġwheels": 3398,
      "âĤ¬âĢ": 3399,
      "Ġjacket": 3400,
      "Ġreward": 3401,
      "Ġwing": 3402,
      "Ġbeetle": 3403,
      "Ġsudden": 3404,
      "host": 3405,
      "Ġcrocodile": 3406,
      "ÅĵIt": 3407,
      "Ġpup": 3408,
      "Ġseeds": 3409,
      "Ġpeeked": 3410,
      "Ġspaghetti": 3411,
      "Ġenth": 3412,
      "Ġpant": 3413,
      "Ġdesk": 3414,
      "Ġmeal": 3415,
      "isk": 3416,
      "ellig": 3417,
      "arsh": 3418,
      "Ġnumbers": 3419,
      "Ġorder": 3420,
      "Ġcomput": 3421,
      "ikes": 3422,
      "Ġintellig": 3423,
      "Ġwarned": 3424,
      "Ġcrazy": 3425,
      "Ġpengu": 3426,
      "Ġtowers": 3427,
      "Ġstamp": 3428,
      "loo": 3429,
      "Ġumbrella": 3430,
      "Ġspilled": 3431,
      "Ġdiscover": 3432,
      "Ġenthus": 3433,
      "Ġnote": 3434,
      "Ġsadly": 3435,
      "ĠFr": 3436,
      "Ġghost": 3437,
      "Ġstatue": 3438,
      "Ġpattern": 3439,
      "Ġtur": 3440,
      "Ġmask": 3441,
      "Ġmel": 3442,
      "ĠMummy": 3443,
      "Ġenv": 3444,
      "Ġmailbox": 3445,
      "ement": 3446,
      "Ġtruth": 3447,
      "Ġwindows": 3448,
      "Ġingredients": 3449,
      "Ġer": 3450,
      "Ġstack": 3451,
      "Ġtravel": 3452,
      "ophie": 3453,
      "Ġsurf": 3454,
      "Ġcomb": 3455,
      "Ġprize": 3456,
      "ĠWhile": 3457,
      "Ġearly": 3458,
      "ief": 3459,
      "Ġimagined": 3460,
      "Ġhandle": 3461,
      "Ġrece": 3462,
      "Ġenvelope": 3463,
      "Ġearth": 3464,
      "ĠDave": 3465,
      "Ġbent": 3466,
      "Ġsorts": 3467,
      "Ġavo": 3468,
      "io": 3469,
      "Ġscale": 3470,
      "Ġpale": 3471,
      "Ġpenny": 3472,
      "Ġtorn": 3473,
      "Ġahead": 3474,
      "Ġfork": 3475,
      "ince": 3476,
      "Ġcrane": 3477,
      "awn": 3478,
      "Ġturkey": 3479,
      "Ġbadly": 3480,
      "Ġscreen": 3481,
      "Ġpretending": 3482,
      "Ġjumps": 3483,
      "illie": 3484,
      "Ġreading": 3485,
      "Ġhumble": 3486,
      "Ġwire": 3487,
      "Ġplaced": 3488,
      "Ġspring": 3489,
      "ÅĵLetÃ¢": 3490,
      "ĠHere": 3491,
      "ric": 3492,
      "iches": 3493,
      "Ġspoke": 3494,
      "Ġharmless": 3495,
      "bled": 3496,
      "ĠcouldnÃ¢": 3497,
      "Ġpersistent": 3498,
      "Ġolder": 3499,
      "Ġshut": 3500,
      "Ġperm": 3501,
      "Ġcere": 3502,
      "Ġcounting": 3503,
      "Ġgrowing": 3504,
      "Ġtunnel": 3505,
      "Ġencou": 3506,
      "ĠLola": 3507,
      "Ġslides": 3508,
      "Ġliz": 3509,
      "Ġlibrary": 3510,
      "Ġbracelet": 3511,
      "While": 3512,
      "ctop": 3513,
      "Ġmush": 3514,
      "ĠGive": 3515,
      "ctopus": 3516,
      "Ġpiano": 3517,
      "ĠToby": 3518,
      "ud": 3519,
      "Ġflute": 3520,
      "Ġbeauty": 3521,
      "Ġcomplet": 3522,
      "Ġsuper": 3523,
      "Ġcryst": 3524,
      "Ġparade": 3525,
      "Ġmay": 3526,
      "ĠLook": 3527,
      "Ġnames": 3528,
      "Ġcompl": 3529,
      "cream": 3530,
      "ĠBear": 3531,
      "Ġsofa": 3532,
      "Ġcrawl": 3533,
      "Ġscatter": 3534,
      "comfort": 3535,
      "Ġanx": 3536,
      "Ġtriang": 3537,
      "Yay": 3538,
      "Ġbutterflies": 3539,
      "Ġtrap": 3540,
      "Ġcelebrate": 3541,
      "Ġcarp": 3542,
      "Ġoctopus": 3543,
      "Ġtrash": 3544,
      "Ġcomputer": 3545,
      "Ġjug": 3546,
      "ĠKim": 3547,
      "Ġpow": 3548,
      "ĠPe": 3549,
      "comfortable": 3550,
      "aid": 3551,
      "Ġtooth": 3552,
      "Ġuncomfortable": 3553,
      "Ġdestroy": 3554,
      "Ġintelligent": 3555,
      "Ġcards": 3556,
      "Ġtrick": 3557,
      "Ġanxious": 3558,
      "Ġobject": 3559,
      "Ġrefused": 3560,
      "ices": 3561,
      "Ġbeep": 3562,
      "Ġphot": 3563,
      "Ġcourage": 3564,
      "Ġvalue": 3565,
      "Ġcooking": 3566,
      "Ġhung": 3567,
      "ubby": 3568,
      "Ġsandwiches": 3569,
      "Ġtrack": 3570,
      "Ġgum": 3571,
      "Ġscoot": 3572,
      "Ġclub": 3573,
      "Ġletters": 3574,
      "Ġspeed": 3575,
      "Ġordinary": 3576,
      "Ġcharming": 3577,
      "oe": 3578,
      "uddy": 3579,
      "Alice": 3580,
      "Ġquestion": 3581,
      "Ġneat": 3582,
      "Ġbandage": 3583,
      "Ġtwirled": 3584,
      "aches": 3585,
      "ips": 3586,
      "ĠPat": 3587,
      "Ġblueber": 3588,
      "Ġuncle": 3589,
      "Ġcupboard": 3590,
      "Ġgifted": 3591,
      "Ġcereal": 3592,
      "Ġcamp": 3593,
      "enry": 3594,
      "orant": 3595,
      "Ġhunter": 3596,
      "Ġtask": 3597,
      "Ġmole": 3598,
      "Ġpigeon": 3599,
      "Ġanywhere": 3600,
      "Re": 3601,
      "Ġrules": 3602,
      "Ġsunflower": 3603,
      "Ġbase": 3604,
      "Ġchasing": 3605,
      "Ġsnuggled": 3606,
      "Ġnail": 3607,
      "gust": 3608,
      "Ġvi": 3609,
      "Ġcurt": 3610,
      "Ġcompetitive": 3611,
      "Ġgloomy": 3612,
      "Ġdrawer": 3613,
      "Ġsett": 3614,
      "Ġcurtain": 3615,
      "Ġcollar": 3616,
      "Ġuniver": 3617,
      "arlie": 3618,
      "Ġdisgust": 3619,
      "Ġmushroom": 3620,
      "Ġyawn": 3621,
      "Give": 3622,
      "Ġbicy": 3623,
      "Ġsend": 3624,
      "arian": 3625,
      "ceed": 3626,
      "Ġignorant": 3627,
      "Ġdeaf": 3628,
      "Ġattract": 3629,
      "Ġstation": 3630,
      "Ġlizard": 3631,
      "aby": 3632,
      "Ġcarpet": 3633,
      "Ġleash": 3634,
      "cut": 3635,
      "Ġflour": 3636,
      "Ġbounced": 3637,
      "used": 3638,
      "Ġstickers": 3639,
      "Ġpasta": 3640,
      "coa": 3641,
      "Ġlively": 3642,
      "Ġsoldier": 3643,
      "Ġchance": 3644,
      "Ġtire": 3645,
      "Ġcompassionate": 3646,
      "aff": 3647,
      "Ġstarts": 3648,
      "Ġled": 3649,
      "Ġalert": 3650,
      "Ġhurry": 3651,
      "Ġchubby": 3652,
      "Ġpony": 3653,
      "Ġcartoon": 3654,
      "ses": 3655,
      "stri": 3656,
      "Ġsupport": 3657,
      "Ġdug": 3658,
      "erable": 3659,
      "ĠSm": 3660,
      "Ġpressed": 3661,
      "Ġpackage": 3662,
      "Ġwishes": 3663,
      "cu": 3664,
      "Ġcreatures": 3665,
      "Ġhelpless": 3666,
      "Ġmiserable": 3667,
      "Ġshine": 3668,
      "ĠMandy": 3669,
      "Ġjet": 3670,
      "ĠEventually": 3671,
      "tter": 3672,
      "urb": 3673,
      "Ġhook": 3674,
      "Ġthief": 3675,
      "Ġstretched": 3676,
      "Ġhipp": 3677,
      "Ġgir": 3678,
      "Ġshaking": 3679,
      "Ġresist": 3680,
      "Ġtap": 3681,
      "ummer": 3682,
      "Ġitself": 3683,
      "Ġhelmet": 3684,
      "Ġsquash": 3685,
      "ÅĵThat": 3686,
      "iest": 3687,
      "Ġdisturb": 3688,
      "heart": 3689,
      "Ġpants": 3690,
      "Ġgor": 3691,
      "Ġtray": 3692,
      "Ġcocoa": 3693,
      "Ġener": 3694,
      "ĠPolly": 3695,
      "Ġneedle": 3696,
      "Ġpoem": 3697,
      "Ġimpat": 3698,
      "gie": 3699,
      "Ġshouts": 3700,
      "Ġfearful": 3701,
      "Ġpepper": 3702,
      "Ġcricket": 3703,
      "Ġcase": 3704,
      "ĠAl": 3705,
      "noon": 3706,
      "Ġten": 3707,
      "Ġafternoon": 3708,
      "Daisy": 3709,
      "ĠSh": 3710,
      "ĠAre": 3711,
      "Ġsucceed": 3712,
      "Ġrepe": 3713,
      "Ġmill": 3714,
      "Ġbrighter": 3715,
      "Ġallig": 3716,
      "If": 3717,
      "Ġbet": 3718,
      "Ġleop": 3719,
      "Ġenvious": 3720,
      "Ġribb": 3721,
      "ĠBill": 3722,
      "Ġtemp": 3723,
      "aurant": 3724,
      "Ġimpatient": 3725,
      "Ġwaff": 3726,
      "orable": 3727,
      "Ġnobody": 3728,
      "Ġdisgusting": 3729,
      "Ġrestaurant": 3730,
      "Ġcomet": 3731,
      "Ġmath": 3732,
      "Ġpracticed": 3733,
      "Ġcrystal": 3734,
      "aked": 3735,
      "Ġrice": 3736,
      "Ġcube": 3737,
      "Ġsteps": 3738,
      "Ġfurther": 3739,
      "Ġotter": 3740,
      "Ġsandbox": 3741,
      "Ġscrew": 3742,
      "ĠGeorge": 3743,
      "Ġtrump": 3744,
      "Ġsomewhere": 3745,
      "Ġcandle": 3746,
      "Ġattractive": 3747,
      "ĠWhere": 3748,
      "Ġmonkeys": 3749,
      "Ġpun": 3750,
      "Ġpurse": 3751,
      "olin": 3752,
      "Bye": 3753,
      "Ġvide": 3754,
      "Ġjeep": 3755,
      "Ġbackpack": 3756,
      "Ġskip": 3757,
      "Ġhuman": 3758,
      "Ġmeas": 3759,
      "Ġanyway": 3760,
      "Ġfireman": 3761,
      "Ġadorable": 3762,
      "Ġrestless": 3763,
      "Ġstretch": 3764,
      "icop": 3765,
      "icopter": 3766,
      "Ġmug": 3767,
      "Ġfilthy": 3768,
      "Ġdess": 3769,
      "strich": 3770,
      "Ġfu": 3771,
      "aroo": 3772,
      "angaroo": 3773,
      "Ġdecorate": 3774,
      "Ġbri": 3775,
      "stic": 3776,
      "Ġrespectful": 3777,
      "Ġtroubled": 3778,
      "Ġgiggle": 3779,
      "ĠCl": 3780,
      "gn": 3781,
      "Benny": 3782,
      "Ġattic": 3783,
      "Ġhelicopter": 3784,
      "Ġmuff": 3785,
      "Ġpand": 3786,
      "Ġraven": 3787,
      "Ġmelon": 3788,
      "Ġthread": 3789,
      "Ġnowhere": 3790,
      "Ġstirred": 3791,
      "Ġsoar": 3792,
      "Ġenthusia": 3793,
      "Ġenthusiastic": 3794,
      "Ġfle": 3795,
      "lcano": 3796,
      "Ġgrabs": 3797,
      "Ġimpro": 3798,
      "Ġgorilla": 3799,
      "Ġleopard": 3800,
      "Ġfinds": 3801,
      "Ġbarking": 3802,
      "Ġcooked": 3803,
      "Ġexplain": 3804,
      "Ġnuts": 3805,
      "Ġmagnet": 3806,
      "Ġbicycle": 3807,
      "Ġtrumpet": 3808,
      "Ġkangaroo": 3809,
      "shed": 3810,
      "Ġquar": 3811,
      "Ġhippo": 3812,
      "ĠLee": 3813,
      "Ġshoe": 3814,
      "Ġlistening": 3815,
      "Ġcats": 3816,
      "Ġsummer": 3817,
      "Ġdistant": 3818,
      "Ġfive": 3819,
      "Ġbarrel": 3820,
      "irit": 3821,
      "stairs": 3822,
      "gging": 3823,
      "ĠWh": 3824,
      "Ġspell": 3825,
      "Ġreco": 3826,
      "Ġexper": 3827,
      "night": 3828,
      "Ġadmire": 3829,
      "Ġstared": 3830,
      "Ġpipe": 3831,
      "Little": 3832,
      "Ġunpack": 3833,
      "Ġvolcano": 3834,
      "Ġants": 3835,
      "Ġjellyfish": 3836,
      "Ġhappier": 3837,
      "Ġsent": 3838,
      "Ġalligator": 3839,
      "Ġfort": 3840,
      "Ġharsh": 3841,
      "Ġorganize": 3842,
      "Ġur": 3843,
      "uct": 3844,
      "Ġquite": 3845,
      "ĠEverything": 3846,
      "come": 3847,
      "Ġsplit": 3848,
      "Ġsecond": 3849,
      "Ġvine": 3850,
      "Ġsweetheart": 3851,
      "Ġpaws": 3852,
      "ĠWould": 3853,
      "Ġradio": 3854,
      "Everyone": 3855,
      "cycle": 3856,
      "Ġriding": 3857,
      "Ġpulls": 3858,
      "Ġgiven": 3859,
      "Ġbatht": 3860,
      "ophone": 3861,
      "Ġseal": 3862,
      "ĠdidnÃ¢": 3863,
      "Ġfirework": 3864,
      "Ġscooter": 3865,
      "Ġbreat": 3866,
      "par": 3867,
      "erop": 3868,
      "eropl": 3869,
      "Ġpal": 3870,
      "Ġmodest": 3871,
      "Ġbathtub": 3872,
      "apa": 3873,
      "Ġhall": 3874,
      "Ġtripped": 3875,
      "Ġaeropl": 3876,
      "Ġmessage": 3877,
      "Ġchalk": 3878,
      "Ġlid": 3879,
      "Ġsepar": 3880,
      "Ġbikes": 3881,
      "Ġcows": 3882,
      "Ġsle": 3883,
      "Ġpushing": 3884,
      "Ġspeak": 3885,
      "Ġfrowned": 3886,
      "Ġmama": 3887,
      "llie": 3888,
      "Ġostrich": 3889,
      "Ġsort": 3890,
      "ĠJoey": 3891,
      "Ġsailor": 3892,
      "Ġshield": 3893,
      "Ġsweater": 3894,
      "Ġpaid": 3895,
      "Ġeras": 3896,
      "Ġrepair": 3897,
      "ccol": 3898,
      "Ġsock": 3899,
      "Ġbin": 3900,
      "ĠBrownie": 3901,
      "Ġdessert": 3902,
      "Ġmeat": 3903,
      "Ġsalt": 3904,
      "year": 3905,
      "Ġobser": 3906,
      "Ġhaircut": 3907,
      "Ġsize": 3908,
      "ccoli": 3909,
      "aggie": 3910,
      "hood": 3911,
      "eer": 3912,
      "Ġrescue": 3913,
      "Ġeither": 3914,
      "Ġspirit": 3915,
      "ucked": 3916,
      "ĠTweetie": 3917,
      "Ġpilot": 3918,
      "Ġviolin": 3919,
      "ĠJerry": 3920,
      "Ġholes": 3921,
      "Ġgrapes": 3922,
      "Ġscold": 3923,
      "Ġlightning": 3924,
      "Ġtriangle": 3925,
      "ĠSmith": 3926,
      "Ġbelt": 3927,
      "Ġsheet": 3928,
      "Ġbehave": 3929,
      "Ġbuzz": 3930,
      "ĠAlex": 3931,
      "Ġroared": 3932,
      "Ġdishes": 3933,
      "Ġpalace": 3934,
      "rec": 3935,
      "Ġcountry": 3936,
      "Ġcostume": 3937,
      "Ġpushes": 3938,
      "Ġelev": 3939,
      "Grandma": 3940,
      "Ġlions": 3941,
      "Ġforgave": 3942,
      "Ġswitch": 3943,
      "Ġstarting": 3944,
      "Ġpapers": 3945,
      "Ġluck": 3946,
      "Ġcush": 3947,
      "Ġchain": 3948,
      "astic": 3949,
      "Ġped": 3950,
      "Ġraft": 3951,
      "Ġsticker": 3952,
      "Ġloop": 3953,
      "Ġswinging": 3954,
      "Ġpeek": 3955,
      "Ġshakes": 3956,
      "Ġrecogn": 3957,
      "Ġbears": 3958,
      "bul": 3959,
      "Ġshade": 3960,
      "Ġtrains": 3961,
      "ÅĵYou": 3962,
      "Ġhive": 3963,
      "Ġelevator": 3964,
      "Ġshopkeeper": 3965,
      "Ġmicr": 3966,
      "Ġchecked": 3967,
      "Ġsaus": 3968,
      "Ġbasketball": 3969,
      "Ġtax": 3970,
      "Ġsilver": 3971,
      "Ġbroccoli": 3972,
      "Ġjokes": 3973,
      "happy": 3974,
      "ipping": 3975,
      "Ġalive": 3976,
      "Ġrod": 3977,
      "Ġoy": 3978,
      "reci": 3979,
      "Ġlip": 3980,
      "icer": 3981,
      "Ġprov": 3982,
      "ffe": 3983,
      "Ġlear": 3984,
      "Ġfalling": 3985,
      "Ġlearnt": 3986,
      "Ġwheat": 3987,
      "Ġenergy": 3988,
      "ube": 3989,
      "Ġappreci": 3990,
      "Ġsoftly": 3991,
      "ffee": 3992,
      "aled": 3993,
      "Ġpole": 3994,
      "Ġevening": 3995,
      "Ġmicrophone": 3996,
      "Ġwallet": 3997,
      "Ġneighbour": 3998,
      "Ġpor": 3999,
      "Ġinse": 4000,
      "Ġjudge": 4001,
      "Ġcact": 4002,
      "Ġplanet": 4003,
      "iskers": 4004,
      "Ġcolours": 4005,
      "Ġpenguin": 4006,
      "Ġbarks": 4007,
      "Ġvisited": 4008,
      "Ġended": 4009,
      "Ġreind": 4010,
      "Ġknot": 4011,
      "iling": 4012,
      "Ġclapping": 4013,
      "ĠOr": 4014,
      "cast": 4015,
      "inking": 4016,
      "Ġhedge": 4017,
      "Ġzoomed": 4018,
      "Ġrubber": 4019,
      "edy": 4020,
      "Ġoat": 4021,
      "Ġmarched": 4022,
      "Ġboots": 4023,
      "Ġunhappy": 4024,
      "Ġjournal": 4025,
      "Ġeraser": 4026,
      "play": 4027,
      "Ġmild": 4028,
      "Ġol": 4029,
      "ense": 4030,
      "Ġavoc": 4031,
      "Daddy": 4032,
      "Ġshovel": 4033,
      "Ġtaxi": 4034,
      "Ġgro": 4035,
      "Ġsandcast": 4036,
      "Ġpad": 4037,
      "ooped": 4038,
      "Ġlaund": 4039,
      "ophy": 4040,
      "ĠSnow": 4041,
      "Ġtube": 4042,
      "Ġcardboard": 4043,
      "imi": 4044,
      "Ġlaundry": 4045,
      "ĠSophie": 4046,
      "ebook": 4047,
      "Ġart": 4048,
      "Ġavail": 4049,
      "elery": 4050,
      "Ġbur": 4051,
      "seum": 4052,
      "aulif": 4053,
      "Ha": 4054,
      "Ġnotebook": 4055,
      "Ġpanda": 4056,
      "aulifl": 4057,
      "Ġreindeer": 4058,
      "Ġbelongs": 4059,
      "Ġambul": 4060,
      "Ġdrawings": 4061,
      "Ġsteak": 4062,
      "Ġwool": 4063,
      "Ġcord": 4064,
      "ĠRed": 4065,
      "Ġcactus": 4066,
      "Ġsmells": 4067,
      "Ġsprink": 4068,
      "Ġtrophy": 4069,
      "Ġshelter": 4070,
      "Ġmule": 4071,
      "Ġfeelings": 4072,
      "Ġputting": 4073,
      "Ġclimbing": 4074,
      "Ġpainter": 4075,
      "Ġdisplay": 4076,
      "Ġrolling": 4077,
      "Jenny": 4078,
      "Ġunlock": 4079,
      "Ġmuseum": 4080,
      "Ġtricks": 4081,
      "Ġhadn": 4082,
      "Ġbreaks": 4083,
      "Ġmen": 4084,
      "ait": 4085,
      "Ġstrugg": 4086,
      "Ġbananas": 4087,
      "Ġavailable": 4088,
      "nger": 4089,
      "Ġraining": 4090,
      "Ġstrawberry": 4091,
      "Ġdive": 4092,
      "ges": 4093,
      "Ġstom": 4094,
      "Ġsoil": 4095
    },
    "merges": [
      [
        "h",
        "e"
      ],
      [
        "Ġ",
        "t"
      ],
      [
        "Ġ",
        "a"
      ],
      [
        "Ġ",
        "s"
      ],
      [
        "Ġ",
        "w"
      ],
      [
        "n",
        "d"
      ],
      [
        "Ġt",
        "he"
      ],
      [
        "e",
        "d"
      ],
      [
        "Ġa",
        "nd"
      ],
      [
        "Ġt",
        "o"
      ],
      [
        "Ġ",
        "b"
      ],
      [
        "i",
        "n"
      ],
      [
        "Ġ",
        "h"
      ],
      [
        "Ġw",
        "a"
      ],
      [
        "r",
        "e"
      ],
      [
        "o",
        "u"
      ],
      [
        "Ġ",
        "f"
      ],
      [
        "i",
        "t"
      ],
      [
        "Ġ",
        "l"
      ],
      [
        "Ġ",
        "c"
      ],
      [
        "Ġ",
        "d"
      ],
      [
        "e",
        "r"
      ],
      [
        "Ġ",
        "he"
      ],
      [
        "Ġ",
        "m"
      ],
      [
        "Ġ",
        "p"
      ],
      [
        "Ġwa",
        "s"
      ],
      [
        "o",
        "m"
      ],
      [
        "Ġ",
        "T"
      ],
      [
        "Ġ",
        "o"
      ],
      [
        "a",
        "y"
      ],
      [
        "a",
        "r"
      ],
      [
        "i",
        "s"
      ],
      [
        "in",
        "g"
      ],
      [
        "i",
        "l"
      ],
      [
        "Ġ",
        "g"
      ],
      [
        "i",
        "d"
      ],
      [
        "a",
        "t"
      ],
      [
        "e",
        "n"
      ],
      [
        "Ġ",
        "n"
      ],
      [
        "Ġs",
        "a"
      ],
      [
        "Ġh",
        "a"
      ],
      [
        "ĠT",
        "he"
      ],
      [
        "Ġ",
        "S"
      ],
      [
        "a",
        "n"
      ],
      [
        "i",
        "m"
      ],
      [
        "o",
        "r"
      ],
      [
        "o",
        "n"
      ],
      [
        "Ġ",
        "it"
      ],
      [
        "Ġt",
        "h"
      ],
      [
        "l",
        "l"
      ],
      [
        "l",
        "e"
      ],
      [
        "Ġ",
        "H"
      ],
      [
        "o",
        "t"
      ],
      [
        "Ġhe",
        "r"
      ],
      [
        "e",
        "t"
      ],
      [
        "i",
        "r"
      ],
      [
        "ĠS",
        "he"
      ],
      [
        "e",
        "s"
      ],
      [
        "ĠH",
        "e"
      ],
      [
        "Ġ",
        "in"
      ],
      [
        "v",
        "er"
      ],
      [
        "u",
        "t"
      ],
      [
        "o",
        "w"
      ],
      [
        "ĠThe",
        "y"
      ],
      [
        "c",
        "k"
      ],
      [
        "Ġ",
        "e"
      ],
      [
        "Ġ",
        "y"
      ],
      [
        "Ġ",
        "u"
      ],
      [
        "l",
        "d"
      ],
      [
        "o",
        "o"
      ],
      [
        "Ġsa",
        "id"
      ],
      [
        "il",
        "y"
      ],
      [
        "i",
        "g"
      ],
      [
        "Ġ",
        "r"
      ],
      [
        "Ġ",
        "\""
      ],
      [
        "Ġb",
        "e"
      ],
      [
        "a",
        "m"
      ],
      [
        "Ġ",
        "I"
      ],
      [
        "Ġs",
        "t"
      ],
      [
        "k",
        "e"
      ],
      [
        "c",
        "e"
      ],
      [
        "v",
        "e"
      ],
      [
        "Ġs",
        "he"
      ],
      [
        "p",
        "p"
      ],
      [
        "it",
        "h"
      ],
      [
        "Ġw",
        "ith"
      ],
      [
        "L",
        "ily"
      ],
      [
        "O",
        "n"
      ],
      [
        "Ġo",
        "n"
      ],
      [
        "Ġy",
        "ou"
      ],
      [
        "Ġo",
        "f"
      ],
      [
        "k",
        "ed"
      ],
      [
        "r",
        "i"
      ],
      [
        "n",
        "t"
      ],
      [
        "Ġp",
        "l"
      ],
      [
        "Ġh",
        "is"
      ],
      [
        "Ġs",
        "o"
      ],
      [
        "a",
        "d"
      ],
      [
        "ver",
        "y"
      ],
      [
        "Ġd",
        "ay"
      ],
      [
        "Ġth",
        "at"
      ],
      [
        "Ġu",
        "p"
      ],
      [
        "Ġpl",
        "ay"
      ],
      [
        "Ġha",
        "d"
      ],
      [
        "s",
        "t"
      ],
      [
        "Ġthe",
        "y"
      ],
      [
        "Ġ",
        "Lily"
      ],
      [
        "Ġw",
        "e"
      ],
      [
        "Ġm",
        "om"
      ],
      [
        "Ġ",
        "B"
      ],
      [
        "Ġf",
        "or"
      ],
      [
        "e",
        "l"
      ],
      [
        "u",
        "n"
      ],
      [
        "ou",
        "ld"
      ],
      [
        "'",
        "s"
      ],
      [
        "T",
        "he"
      ],
      [
        "m",
        "y"
      ],
      [
        "Ġl",
        "i"
      ],
      [
        "c",
        "h"
      ],
      [
        "Ġha",
        "pp"
      ],
      [
        "Ġwa",
        "nt"
      ],
      [
        "en",
        "t"
      ],
      [
        "Ġs",
        "h"
      ],
      [
        "it",
        "t"
      ],
      [
        "ou",
        "t"
      ],
      [
        "he",
        "r"
      ],
      [
        "Ġn",
        "ot"
      ],
      [
        "Ġd",
        "o"
      ],
      [
        "s",
        "e"
      ],
      [
        "l",
        "y"
      ],
      [
        "om",
        "e"
      ],
      [
        "Ġ",
        "very"
      ],
      [
        "ou",
        "nd"
      ],
      [
        "e",
        "nd"
      ],
      [
        "a",
        "ll"
      ],
      [
        "Ġw",
        "h"
      ],
      [
        "im",
        "e"
      ],
      [
        "Ġ",
        "k"
      ],
      [
        "itt",
        "le"
      ],
      [
        "Ġt",
        "ime"
      ],
      [
        "a",
        "l"
      ],
      [
        "Ġl",
        "ittle"
      ],
      [
        "Ġ",
        "M"
      ],
      [
        "Ġn",
        "e"
      ],
      [
        "h",
        "t"
      ],
      [
        "Ġthe",
        "re"
      ],
      [
        "Ġ",
        "is"
      ],
      [
        "Ġhapp",
        "y"
      ],
      [
        "Ġ",
        "re"
      ],
      [
        "Ġb",
        "ig"
      ],
      [
        "Ġs",
        "m"
      ],
      [
        "ĠI",
        "t"
      ],
      [
        "Ġb",
        "ut"
      ],
      [
        "Ġ",
        "Ċ"
      ],
      [
        "Ġa",
        "n"
      ],
      [
        "r",
        "a"
      ],
      [
        "Ġsa",
        "w"
      ],
      [
        "r",
        "y"
      ],
      [
        ".",
        "\""
      ],
      [
        "ri",
        "end"
      ],
      [
        "Ġf",
        "riend"
      ],
      [
        "Ġa",
        "s"
      ],
      [
        "a",
        "ck"
      ],
      [
        "On",
        "e"
      ],
      [
        "id",
        "e"
      ],
      [
        "a",
        "ke"
      ],
      [
        "'",
        "t"
      ],
      [
        "u",
        "g"
      ],
      [
        "!",
        "\""
      ],
      [
        "Ġl",
        "oo"
      ],
      [
        "Ġwe",
        "re"
      ],
      [
        "t",
        "er"
      ],
      [
        "v",
        "ed"
      ],
      [
        "o",
        "re"
      ],
      [
        "Ġl",
        "o"
      ],
      [
        "On",
        "ce"
      ],
      [
        "e",
        "c"
      ],
      [
        "Ġto",
        "o"
      ],
      [
        "Ġh",
        "im"
      ],
      [
        "Ġb",
        "o"
      ],
      [
        "Ġg",
        "o"
      ],
      [
        "Ġs",
        "e"
      ],
      [
        "Ġa",
        "re"
      ],
      [
        "Ġ",
        "j"
      ],
      [
        "ir",
        "l"
      ],
      [
        "ar",
        "d"
      ],
      [
        "Ġwant",
        "ed"
      ],
      [
        "il",
        "l"
      ],
      [
        "ĠT",
        "im"
      ],
      [
        "Ġthe",
        "m"
      ],
      [
        "Ġg",
        "irl"
      ],
      [
        "Ġup",
        "on"
      ],
      [
        "Ġ",
        "out"
      ],
      [
        "Ġa",
        "t"
      ],
      [
        "Ġthe",
        "ir"
      ],
      [
        "u",
        "r"
      ],
      [
        "i",
        "nd"
      ],
      [
        "f",
        "u"
      ],
      [
        "w",
        "ay"
      ],
      [
        "Ġ",
        "A"
      ],
      [
        "Ġd",
        "id"
      ],
      [
        "Ġs",
        "p"
      ],
      [
        "Ġsm",
        "il"
      ],
      [
        "Ġc",
        "ould"
      ],
      [
        "he",
        "n"
      ],
      [
        "Ġha",
        "ve"
      ],
      [
        "a",
        "in"
      ],
      [
        "ar",
        "t"
      ],
      [
        "he",
        "d"
      ],
      [
        "Ġe",
        "x"
      ],
      [
        "r",
        "om"
      ],
      [
        "Ġa",
        "r"
      ],
      [
        "Ġc",
        "an"
      ],
      [
        "Ġw",
        "ent"
      ],
      [
        "i",
        "c"
      ],
      [
        "ĠB",
        "en"
      ],
      [
        "l",
        "p"
      ],
      [
        "fu",
        "l"
      ],
      [
        "Ġ",
        "J"
      ],
      [
        "oo",
        "d"
      ],
      [
        "?",
        "\""
      ],
      [
        "Ġfriend",
        "s"
      ],
      [
        "h",
        "ing"
      ],
      [
        "ig",
        "ht"
      ],
      [
        "Ġn",
        "am"
      ],
      [
        "Ġk",
        "n"
      ],
      [
        "Ġa",
        "ll"
      ],
      [
        "Ġhe",
        "lp"
      ],
      [
        "Ġs",
        "ay"
      ],
      [
        "u",
        "m"
      ],
      [
        "on",
        "e"
      ],
      [
        "ar",
        "k"
      ],
      [
        "Ġb",
        "ack"
      ],
      [
        "Y",
        "ou"
      ],
      [
        "ĠT",
        "om"
      ],
      [
        "Ġc",
        "l"
      ],
      [
        "Ġf",
        "un"
      ],
      [
        "a",
        "re"
      ],
      [
        "Ġn",
        "o"
      ],
      [
        "Ġl",
        "e"
      ],
      [
        "o",
        "p"
      ],
      [
        "Ġs",
        "c"
      ],
      [
        "Ġa",
        "l"
      ],
      [
        "Ġsmil",
        "ed"
      ],
      [
        "Ġnam",
        "ed"
      ],
      [
        "ou",
        "g"
      ],
      [
        "Ġm",
        "an"
      ],
      [
        "el",
        "t"
      ],
      [
        "Ġlo",
        "ved"
      ],
      [
        "s",
        "ide"
      ],
      [
        "i",
        "ck"
      ],
      [
        "Ġ",
        "One"
      ],
      [
        "Ġto",
        "y"
      ],
      [
        "Ġli",
        "ke"
      ],
      [
        "Ġas",
        "ked"
      ],
      [
        "Ġf",
        "elt"
      ],
      [
        "Ġf",
        "e"
      ],
      [
        "Ġloo",
        "ked"
      ],
      [
        "Ġse",
        "e"
      ],
      [
        "Ġm",
        "e"
      ],
      [
        "Ġs",
        "ome"
      ],
      [
        "Ġar",
        "ound"
      ],
      [
        "am",
        "e"
      ],
      [
        "om",
        "et"
      ],
      [
        "Ġ",
        "W"
      ],
      [
        "Ġr",
        "o"
      ],
      [
        "Ġb",
        "r"
      ],
      [
        "u",
        "re"
      ],
      [
        "Ġb",
        "ir"
      ],
      [
        "i",
        "ce"
      ],
      [
        "ĠTim",
        "my"
      ],
      [
        "g",
        "et"
      ],
      [
        "Ġw",
        "ould"
      ],
      [
        "Ġbo",
        "y"
      ],
      [
        "Ġst",
        "art"
      ],
      [
        "on",
        "g"
      ],
      [
        "s",
        "s"
      ],
      [
        "Ġbir",
        "d"
      ],
      [
        "Ġs",
        "omet"
      ],
      [
        "Ġf",
        "a"
      ],
      [
        "Ã",
        "¢"
      ],
      [
        "â",
        "Ĥ"
      ],
      [
        "âĤ",
        "¬"
      ],
      [
        "d",
        "d"
      ],
      [
        "ing",
        "s"
      ],
      [
        "Ġa",
        "g"
      ],
      [
        "ad",
        "e"
      ],
      [
        "Ġm",
        "ake"
      ],
      [
        "Ġw",
        "or"
      ],
      [
        "Ġwh",
        "at"
      ],
      [
        ",",
        "\""
      ],
      [
        "k",
        "ing"
      ],
      [
        "Ġ",
        "You"
      ],
      [
        "ĠB",
        "ut"
      ],
      [
        "Ġsay",
        "s"
      ],
      [
        "Ġr",
        "an"
      ],
      [
        "ow",
        "n"
      ],
      [
        "i",
        "e"
      ],
      [
        "Ġa",
        "way"
      ],
      [
        "Ġt",
        "re"
      ],
      [
        "get",
        "her"
      ],
      [
        "ar",
        "ed"
      ],
      [
        "a",
        "g"
      ],
      [
        "Ġstart",
        "ed"
      ],
      [
        "ou",
        "d"
      ],
      [
        "i",
        "f"
      ],
      [
        "Ġm",
        "ade"
      ],
      [
        "Ġc",
        "ar"
      ],
      [
        "Ġsomet",
        "hing"
      ],
      [
        "Ġto",
        "gether"
      ],
      [
        "t",
        "her"
      ],
      [
        "Ġp",
        "ark"
      ],
      [
        "Ġc",
        "o"
      ],
      [
        "it",
        "ed"
      ],
      [
        "Ġsa",
        "d"
      ],
      [
        "Ġo",
        "ther"
      ],
      [
        "Ġne",
        "w"
      ],
      [
        "Ġf",
        "rom"
      ],
      [
        "Ġp",
        "ut"
      ],
      [
        "e",
        "ll"
      ],
      [
        "Ġex",
        "c"
      ],
      [
        "Ġl",
        "a"
      ],
      [
        "Ġp",
        "r"
      ],
      [
        "Ġh",
        "ug"
      ],
      [
        "Ġ",
        "L"
      ],
      [
        "b",
        "le"
      ],
      [
        "oo",
        "k"
      ],
      [
        "Ġag",
        "ain"
      ],
      [
        "a",
        "ch"
      ],
      [
        "Ġm",
        "u"
      ],
      [
        "Ġg",
        "ood"
      ],
      [
        "Ġw",
        "hen"
      ],
      [
        "Ġh",
        "ome"
      ],
      [
        "e",
        "p"
      ],
      [
        "Ġwh",
        "o"
      ],
      [
        "ri",
        "ed"
      ],
      [
        "Ġf",
        "l"
      ],
      [
        "es",
        "t"
      ],
      [
        "h",
        "at"
      ],
      [
        "Ġthe",
        "n"
      ],
      [
        "Ġf",
        "ound"
      ],
      [
        "Ġc",
        "h"
      ],
      [
        "pp",
        "ed"
      ],
      [
        "Ġd",
        "ec"
      ],
      [
        "a",
        "s"
      ],
      [
        "Ġwa",
        "l"
      ],
      [
        "Ġg",
        "et"
      ],
      [
        "q",
        "u"
      ],
      [
        "Ġplay",
        "ing"
      ],
      [
        "n",
        "n"
      ],
      [
        "oug",
        "ht"
      ],
      [
        "Ġs",
        "w"
      ],
      [
        "Ġ",
        "E"
      ],
      [
        "p",
        "l"
      ],
      [
        "all",
        "y"
      ],
      [
        "ou",
        "s"
      ],
      [
        "Ġth",
        "ings"
      ],
      [
        "Ġli",
        "ked"
      ],
      [
        "u",
        "ck"
      ],
      [
        "Ġexc",
        "ited"
      ],
      [
        "Ġg",
        "ot"
      ],
      [
        "r",
        "o"
      ],
      [
        "Ġb",
        "l"
      ],
      [
        "id",
        "ed"
      ],
      [
        "ar",
        "a"
      ],
      [
        "a",
        "ve"
      ],
      [
        "Ġdec",
        "ided"
      ],
      [
        "Ġe",
        "very"
      ],
      [
        "Ġyou",
        "r"
      ],
      [
        "Ġ",
        "D"
      ],
      [
        "Ġc",
        "ame"
      ],
      [
        "ĠM",
        "om"
      ],
      [
        "Ġdo",
        "g"
      ],
      [
        "a",
        "x"
      ],
      [
        "Ġsc",
        "ared"
      ],
      [
        "Ġ",
        "v"
      ],
      [
        "u",
        "st"
      ],
      [
        "Ġd",
        "own"
      ],
      [
        "Ġon",
        "e"
      ],
      [
        "ou",
        "se"
      ],
      [
        "Ġf",
        "ind"
      ],
      [
        "Ġc",
        "are"
      ],
      [
        "nn",
        "a"
      ],
      [
        "is",
        "t"
      ],
      [
        "n",
        "y"
      ],
      [
        "a",
        "p"
      ],
      [
        "Ġth",
        "an"
      ],
      [
        "Ġbe",
        "c"
      ],
      [
        "The",
        "y"
      ],
      [
        "Ġfe",
        "el"
      ],
      [
        "u",
        "e"
      ],
      [
        "Ġd",
        "ad"
      ],
      [
        "Ġm",
        "y"
      ],
      [
        "u",
        "dd"
      ],
      [
        "Ġa",
        "b"
      ],
      [
        "Ġw",
        "ill"
      ],
      [
        "Ġloo",
        "k"
      ],
      [
        "ar",
        "n"
      ],
      [
        "ou",
        "r"
      ],
      [
        "Ġ",
        "ke"
      ],
      [
        "Ġg",
        "ra"
      ],
      [
        "u",
        "s"
      ],
      [
        "Ġg",
        "r"
      ],
      [
        "nd",
        "er"
      ],
      [
        "es",
        "s"
      ],
      [
        "way",
        "s"
      ],
      [
        "Ġp",
        "o"
      ],
      [
        "f",
        "e"
      ],
      [
        "Ġdid",
        "n"
      ],
      [
        "Ġtoo",
        "k"
      ],
      [
        "Ġab",
        "out"
      ],
      [
        "Ġal",
        "ways"
      ],
      [
        "er",
        "s"
      ],
      [
        "Ġtoy",
        "s"
      ],
      [
        "an",
        "t"
      ],
      [
        "b",
        "b"
      ],
      [
        "Ġl",
        "ot"
      ],
      [
        "Ġkn",
        "e"
      ],
      [
        "ĠS",
        "am"
      ],
      [
        "Ġb",
        "all"
      ],
      [
        "is",
        "e"
      ],
      [
        "Ġmom",
        "my"
      ],
      [
        "Ġtre",
        "e"
      ],
      [
        "Ġth",
        "ought"
      ],
      [
        "Ġout",
        "side"
      ],
      [
        "Ġ",
        "F"
      ],
      [
        "it",
        "e"
      ],
      [
        "Ġm",
        "ore"
      ],
      [
        "en",
        "ed"
      ],
      [
        "Ġt",
        "a"
      ],
      [
        "c",
        "hed"
      ],
      [
        "Ġle",
        "arn"
      ],
      [
        "ec",
        "i"
      ],
      [
        "Ġh",
        "o"
      ],
      [
        "re",
        "t"
      ],
      [
        "Ġo",
        "ld"
      ],
      [
        "Ġin",
        "t"
      ],
      [
        "g",
        "ed"
      ],
      [
        "Ġkn",
        "ow"
      ],
      [
        "Ġs",
        "or"
      ],
      [
        "Ġc",
        "at"
      ],
      [
        "Ġla",
        "ug"
      ],
      [
        "Ġt",
        "ake"
      ],
      [
        "i",
        "ve"
      ],
      [
        "eci",
        "al"
      ],
      [
        "Ġsp",
        "ecial"
      ],
      [
        "i",
        "a"
      ],
      [
        "Ġkne",
        "w"
      ],
      [
        "ĠM",
        "ax"
      ],
      [
        "udd",
        "en"
      ],
      [
        "Ġan",
        "y"
      ],
      [
        "Ġp",
        "e"
      ],
      [
        "f",
        "ter"
      ],
      [
        "Ġh",
        "ow"
      ],
      [
        "udden",
        "ly"
      ],
      [
        "Ġsor",
        "ry"
      ],
      [
        "in",
        "k"
      ],
      [
        "m",
        "a"
      ],
      [
        "Ġsh",
        "ow"
      ],
      [
        "B",
        "ut"
      ],
      [
        "Ġt",
        "r"
      ],
      [
        "Ġr",
        "un"
      ],
      [
        "is",
        "h"
      ],
      [
        "Ġt",
        "w"
      ],
      [
        "Ġs",
        "l"
      ],
      [
        "Ġmu",
        "ch"
      ],
      [
        "a",
        "u"
      ],
      [
        "a",
        "nd"
      ],
      [
        "Ġha",
        "nd"
      ],
      [
        "Ġh",
        "ouse"
      ],
      [
        "Ġo",
        "r"
      ],
      [
        "Ġo",
        "p"
      ],
      [
        "v",
        "en"
      ],
      [
        "Ġs",
        "k"
      ],
      [
        "Ġm",
        "o"
      ],
      [
        "Ġcl",
        "o"
      ],
      [
        "Ġs",
        "un"
      ],
      [
        "Ġt",
        "ried"
      ],
      [
        "Ġint",
        "o"
      ],
      [
        "T",
        "om"
      ],
      [
        "Ġwa",
        "ter"
      ],
      [
        "Ġin",
        "side"
      ],
      [
        "um",
        "p"
      ],
      [
        "Ġto",
        "ld"
      ],
      [
        "an",
        "k"
      ],
      [
        "at",
        "e"
      ],
      [
        "ĠS",
        "ara"
      ],
      [
        "Ġth",
        "is"
      ],
      [
        "Ġ",
        "en"
      ],
      [
        "Ġg",
        "ave"
      ],
      [
        "Ġpr",
        "oud"
      ],
      [
        "Ġ",
        "qu"
      ],
      [
        "Ġhe",
        "ard"
      ],
      [
        "Ġ",
        "if"
      ],
      [
        "Ġne",
        "ver"
      ],
      [
        "Ġe",
        "ach"
      ],
      [
        "Ġo",
        "ver"
      ],
      [
        "Ġcould",
        "n"
      ],
      [
        "a",
        "ce"
      ],
      [
        "ĠW",
        "e"
      ],
      [
        "t",
        "y"
      ],
      [
        "ĠA",
        "nna"
      ],
      [
        "Ġro",
        "om"
      ],
      [
        "b",
        "y"
      ],
      [
        "d",
        "y"
      ],
      [
        "Ġe",
        "at"
      ],
      [
        "ĠE",
        "very"
      ],
      [
        "ot",
        "her"
      ],
      [
        "Ġp",
        "ret"
      ],
      [
        "i",
        "on"
      ],
      [
        "Ġp",
        "ick"
      ],
      [
        "Ġex",
        "pl"
      ],
      [
        "au",
        "se"
      ],
      [
        "Ġplay",
        "ed"
      ],
      [
        "M",
        "om"
      ],
      [
        "a",
        "k"
      ],
      [
        "g",
        "e"
      ],
      [
        "et",
        "ter"
      ],
      [
        "Ġg",
        "re"
      ],
      [
        "Ġhug",
        "ged"
      ],
      [
        "Ġj",
        "ust"
      ],
      [
        "he",
        "re"
      ],
      [
        "Ġc",
        "om"
      ],
      [
        "Ġbo",
        "x"
      ],
      [
        "Ġof",
        "f"
      ],
      [
        "Ġwa",
        "t"
      ],
      [
        "ot",
        "h"
      ],
      [
        "Ġn",
        "ice"
      ],
      [
        "Ġne",
        "ed"
      ],
      [
        "Ġman",
        "y"
      ],
      [
        "'",
        "m"
      ],
      [
        "Ġst",
        "r"
      ],
      [
        "Ġbec",
        "ause"
      ],
      [
        "il",
        "e"
      ],
      [
        "Ġsm",
        "all"
      ],
      [
        "g",
        "ry"
      ],
      [
        "Ġf",
        "o"
      ],
      [
        "i",
        "z"
      ],
      [
        "Ġb",
        "u"
      ],
      [
        "Ġj",
        "o"
      ],
      [
        "v",
        "ing"
      ],
      [
        "Ġl",
        "ong"
      ],
      [
        "u",
        "c"
      ],
      [
        "im",
        "al"
      ],
      [
        "Ġan",
        "imal"
      ],
      [
        "Ġbe",
        "ar"
      ],
      [
        "in",
        "e"
      ],
      [
        "Ġs",
        "n"
      ],
      [
        "Ġt",
        "ry"
      ],
      [
        "or",
        "t"
      ],
      [
        "oug",
        "h"
      ],
      [
        "Ġu",
        "nt"
      ],
      [
        "ur",
        "t"
      ],
      [
        "il",
        "d"
      ],
      [
        "s",
        "el"
      ],
      [
        "Ġlearn",
        "ed"
      ],
      [
        "s",
        "ed"
      ],
      [
        "Ġunt",
        "il"
      ],
      [
        "ĠJ",
        "ack"
      ],
      [
        "Ġlo",
        "ve"
      ],
      [
        "Ġk",
        "ind"
      ],
      [
        "Ġb",
        "etter"
      ],
      [
        "f",
        "t"
      ],
      [
        "Ġfl",
        "ow"
      ],
      [
        "Ġ",
        "im"
      ],
      [
        "ĠM",
        "ia"
      ],
      [
        "Ġc",
        "all"
      ],
      [
        "Ġd",
        "on"
      ],
      [
        "H",
        "e"
      ],
      [
        "Ġb",
        "est"
      ],
      [
        "ar",
        "s"
      ],
      [
        "u",
        "ll"
      ],
      [
        "ur",
        "n"
      ],
      [
        "e",
        "m"
      ],
      [
        "Ġe",
        "nd"
      ],
      [
        "ad",
        "y"
      ],
      [
        "ur",
        "p"
      ],
      [
        "Ġc",
        "le"
      ],
      [
        "Ġa",
        "d"
      ],
      [
        "Y",
        "es"
      ],
      [
        "v",
        "ent"
      ],
      [
        "a",
        "ut"
      ],
      [
        "v",
        "es"
      ],
      [
        "ĠA",
        "nd"
      ],
      [
        "re",
        "am"
      ],
      [
        "ĠJ",
        "o"
      ],
      [
        "Ġcare",
        "ful"
      ],
      [
        "Ġ",
        "C"
      ],
      [
        "Ġfa",
        "st"
      ],
      [
        "ard",
        "en"
      ],
      [
        "Ġg",
        "arden"
      ],
      [
        "Ġbe",
        "aut"
      ],
      [
        "b",
        "er"
      ],
      [
        "T",
        "h"
      ],
      [
        "Ġf",
        "i"
      ],
      [
        "Ġc",
        "he"
      ],
      [
        "Ġthan",
        "ked"
      ],
      [
        "Ġb",
        "ra"
      ],
      [
        "p",
        "t"
      ],
      [
        "Ġsk",
        "y"
      ],
      [
        "Å",
        "ĵ"
      ],
      [
        "Ġe",
        "ven"
      ],
      [
        "i",
        "es"
      ],
      [
        "Ġj",
        "ump"
      ],
      [
        "ĠS",
        "o"
      ],
      [
        "ll",
        "y"
      ],
      [
        "Ġlaug",
        "hed"
      ],
      [
        "a",
        "se"
      ],
      [
        "Ġl",
        "oud"
      ],
      [
        "I",
        "t"
      ],
      [
        "Ġb",
        "y"
      ],
      [
        "Ġt",
        "e"
      ],
      [
        "sel",
        "f"
      ],
      [
        "ĠH",
        "er"
      ],
      [
        "Ġg",
        "l"
      ],
      [
        "Ġl",
        "ist"
      ],
      [
        "in",
        "y"
      ],
      [
        "w",
        "n"
      ],
      [
        "le",
        "w"
      ],
      [
        "Ġc",
        "ome"
      ],
      [
        "Ġbeaut",
        "i"
      ],
      [
        "Ġh",
        "ard"
      ],
      [
        "Ġbeauti",
        "ful"
      ],
      [
        "Ġwa",
        "y"
      ],
      [
        "Ġh",
        "urt"
      ],
      [
        "Ġanimal",
        "s"
      ],
      [
        "Ġlot",
        "s"
      ],
      [
        "Ġw",
        "o"
      ],
      [
        "Ġst",
        "ill"
      ],
      [
        "Ġf",
        "am"
      ],
      [
        "Ġr",
        "a"
      ],
      [
        "Ġu",
        "nder"
      ],
      [
        "ĠThe",
        "n"
      ],
      [
        "Ġst",
        "ay"
      ],
      [
        "Ġl",
        "et"
      ],
      [
        "c",
        "t"
      ],
      [
        "Ġ",
        "Ã¢"
      ],
      [
        "ec",
        "t"
      ],
      [
        "n",
        "ing"
      ],
      [
        "b",
        "e"
      ],
      [
        "he",
        "s"
      ],
      [
        "Ġc",
        "u"
      ],
      [
        "Ġb",
        "oth"
      ],
      [
        "Ġsa",
        "fe"
      ],
      [
        "ĠF",
        "rom"
      ],
      [
        "oo",
        "l"
      ],
      [
        "Ġb",
        "ad"
      ],
      [
        "ĠH",
        "is"
      ],
      [
        "Ġco",
        "l"
      ],
      [
        "op",
        "le"
      ],
      [
        "o",
        "ck"
      ],
      [
        "Ġre",
        "m"
      ],
      [
        "Ġtw",
        "o"
      ],
      [
        "re",
        "e"
      ],
      [
        "k",
        "ay"
      ],
      [
        "Ġb",
        "ook"
      ],
      [
        "Ġim",
        "p"
      ],
      [
        "Ġli",
        "ved"
      ],
      [
        "a",
        "st"
      ],
      [
        "Ġit",
        "s"
      ],
      [
        "T",
        "im"
      ],
      [
        "an",
        "e"
      ],
      [
        "Ġan",
        "gry"
      ],
      [
        "Ġsh",
        "ould"
      ],
      [
        "N",
        "o"
      ],
      [
        "uc",
        "y"
      ],
      [
        "re",
        "ss"
      ],
      [
        "Ġbra",
        "ve"
      ],
      [
        "urp",
        "r"
      ],
      [
        "is",
        "hed"
      ],
      [
        "Ġwal",
        "ked"
      ],
      [
        "Ġpe",
        "ople"
      ],
      [
        "Ġr",
        "ed"
      ],
      [
        "Ġf",
        "lew"
      ],
      [
        "ig",
        "h"
      ],
      [
        "o",
        "b"
      ],
      [
        "Ġs",
        "urpr"
      ],
      [
        "Ġfam",
        "ily"
      ],
      [
        "W",
        "hen"
      ],
      [
        "Ġcall",
        "ed"
      ],
      [
        "i",
        "p"
      ],
      [
        "Ġso",
        "on"
      ],
      [
        "Ġst",
        "or"
      ],
      [
        "Ġf",
        "in"
      ],
      [
        "L",
        "et"
      ],
      [
        "Ġsh",
        "are"
      ],
      [
        "f",
        "ore"
      ],
      [
        "Ġke",
        "pt"
      ],
      [
        "l",
        "ed"
      ],
      [
        "Ġd",
        "an"
      ],
      [
        "Ġf",
        "ly"
      ],
      [
        "x",
        "t"
      ],
      [
        "Ġf",
        "ore"
      ],
      [
        "dd",
        "ed"
      ],
      [
        "Ġp",
        "ic"
      ],
      [
        "is",
        "ed"
      ],
      [
        "h",
        "n"
      ],
      [
        "Ġdo",
        "or"
      ],
      [
        "Ġ",
        "P"
      ],
      [
        "Ġcle",
        "an"
      ],
      [
        "Ġgo",
        "ing"
      ],
      [
        "Ġro",
        "ck"
      ],
      [
        "Ġpret",
        "ty"
      ],
      [
        "B",
        "en"
      ],
      [
        "ĠW",
        "hen"
      ],
      [
        "âĤ¬",
        "â"
      ],
      [
        "Ġn",
        "ow"
      ],
      [
        "Ġke",
        "ep"
      ],
      [
        "Ġno",
        "ise"
      ],
      [
        "Ġd",
        "ra"
      ],
      [
        "Ġsh",
        "iny"
      ],
      [
        "Ġdo",
        "ll"
      ],
      [
        "Ġop",
        "ened"
      ],
      [
        "um",
        "my"
      ],
      [
        "Ġw",
        "ind"
      ],
      [
        "ar",
        "y"
      ],
      [
        "Ġc",
        "ry"
      ],
      [
        "Ġad",
        "vent"
      ],
      [
        "ag",
        "e"
      ],
      [
        "Ġbe",
        "fore"
      ],
      [
        "Ġre",
        "al"
      ],
      [
        "Ġ",
        "ide"
      ],
      [
        "Ġst",
        "o"
      ],
      [
        "Ġc",
        "on"
      ],
      [
        "s",
        "o"
      ],
      [
        "Ġt",
        "urn"
      ],
      [
        "il",
        "ly"
      ],
      [
        "Ġexpl",
        "ore"
      ],
      [
        "Ġgr",
        "ound"
      ],
      [
        "le",
        "s"
      ],
      [
        "i",
        "ed"
      ],
      [
        "Ġal",
        "so"
      ],
      [
        "W",
        "hat"
      ],
      [
        "Ġf",
        "r"
      ],
      [
        "Ġe",
        "y"
      ],
      [
        "Ġf",
        "ar"
      ],
      [
        "Ġide",
        "a"
      ],
      [
        "Ġcol",
        "or"
      ],
      [
        "Ġno",
        "dded"
      ],
      [
        "T",
        "hat"
      ],
      [
        "o",
        "on"
      ],
      [
        "Ħ",
        "¢"
      ],
      [
        "âĤ¬â",
        "Ħ¢"
      ],
      [
        "Ġha",
        "s"
      ],
      [
        "Ġwa",
        "r"
      ],
      [
        "o",
        "y"
      ],
      [
        "t",
        "h"
      ],
      [
        "im",
        "b"
      ],
      [
        "Ġu",
        "n"
      ],
      [
        "Ġfeel",
        "ing"
      ],
      [
        "Ġne",
        "xt"
      ],
      [
        "Ġpick",
        "ed"
      ],
      [
        "t",
        "ure"
      ],
      [
        "u",
        "ch"
      ],
      [
        "k",
        "es"
      ],
      [
        "t",
        "hing"
      ],
      [
        "Ġcl",
        "imb"
      ],
      [
        "ĠL",
        "ucy"
      ],
      [
        "Ġm",
        "a"
      ],
      [
        "Ġwal",
        "king"
      ],
      [
        "ĠD",
        "ad"
      ],
      [
        "Ġsmil",
        "e"
      ],
      [
        "ay",
        "be"
      ],
      [
        "Ġwh",
        "ile"
      ],
      [
        "Ġth",
        "r"
      ],
      [
        "Ġb",
        "ed"
      ],
      [
        "e",
        "et"
      ],
      [
        "g",
        "er"
      ],
      [
        "Ġadvent",
        "ure"
      ],
      [
        "Th",
        "ank"
      ],
      [
        "Ġbe",
        "ing"
      ],
      [
        "Ġg",
        "ive"
      ],
      [
        "Ġtr",
        "uck"
      ],
      [
        "Ġ",
        "G"
      ],
      [
        "ic",
        "ed"
      ],
      [
        "Ġclo",
        "s"
      ],
      [
        "Ġpic",
        "ture"
      ],
      [
        "Ġth",
        "ink"
      ],
      [
        "i",
        "ous"
      ],
      [
        "Ġd",
        "if"
      ],
      [
        "t",
        "ed"
      ],
      [
        "Ġf",
        "ood"
      ],
      [
        "Ġw",
        "r"
      ],
      [
        "j",
        "oy"
      ],
      [
        "Ġto",
        "w"
      ],
      [
        "Ġlist",
        "en"
      ],
      [
        "f",
        "f"
      ],
      [
        "a",
        "c"
      ],
      [
        "Ġey",
        "es"
      ],
      [
        "ug",
        "ht"
      ],
      [
        "Ġb",
        "re"
      ],
      [
        "Ġd",
        "el"
      ],
      [
        "Ġsto",
        "pped"
      ],
      [
        "Ġbr",
        "o"
      ],
      [
        "Ġt",
        "ra"
      ],
      [
        "Ġloo",
        "king"
      ],
      [
        "Ġa",
        "fter"
      ],
      [
        "ĠS",
        "p"
      ],
      [
        "t",
        "ing"
      ],
      [
        "Ġwa",
        "it"
      ],
      [
        "Ġo",
        "wn"
      ],
      [
        "Ġv",
        "o"
      ],
      [
        "Ġsh",
        "out"
      ],
      [
        "Ġwal",
        "k"
      ],
      [
        "Ġre",
        "pl"
      ],
      [
        "em",
        "ber"
      ],
      [
        "Ġhe",
        "ad"
      ],
      [
        "Ġflow",
        "ers"
      ],
      [
        "Ġgre",
        "at"
      ],
      [
        "Ġbl",
        "ue"
      ],
      [
        "Ġwo",
        "nder"
      ],
      [
        "Ġhand",
        "s"
      ],
      [
        "ĠS",
        "uddenly"
      ],
      [
        "Ġen",
        "joy"
      ],
      [
        "Ġe",
        "ver"
      ],
      [
        "S",
        "he"
      ],
      [
        "S",
        "uddenly"
      ],
      [
        "ir",
        "st"
      ],
      [
        "iz",
        "ed"
      ],
      [
        "Ġne",
        "ar"
      ],
      [
        "Ġimp",
        "ort"
      ],
      [
        "Ġnot",
        "iced"
      ],
      [
        "Ġd",
        "is"
      ],
      [
        "bb",
        "it"
      ],
      [
        "Ġsl",
        "ide"
      ],
      [
        "Ġf",
        "ish"
      ],
      [
        "Ġqu",
        "ick"
      ],
      [
        "Ġa",
        "pp"
      ],
      [
        "Ġfore",
        "st"
      ],
      [
        "a",
        "ble"
      ],
      [
        "Ġu",
        "s"
      ],
      [
        "ll",
        "ow"
      ],
      [
        "Ġrem",
        "ember"
      ],
      [
        "Ġd",
        "e"
      ],
      [
        "Ġme",
        "an"
      ],
      [
        "Ġs",
        "ound"
      ],
      [
        "le",
        "ase"
      ],
      [
        "ma",
        "z"
      ],
      [
        "Ġwat",
        "ch"
      ],
      [
        "Ġr",
        "ain"
      ],
      [
        "Ġa",
        "maz"
      ],
      [
        "Ġimport",
        "ant"
      ],
      [
        "Ġas",
        "k"
      ],
      [
        "Ġo",
        "kay"
      ],
      [
        "Ġwor",
        "k"
      ],
      [
        "bb",
        "ed"
      ],
      [
        "Ġshow",
        "ed"
      ],
      [
        "Ġt",
        "al"
      ],
      [
        "by",
        "e"
      ],
      [
        "g",
        "an"
      ],
      [
        "fe",
        "re"
      ],
      [
        "W",
        "e"
      ],
      [
        "Ġrepl",
        "ied"
      ],
      [
        "Ġst",
        "ick"
      ],
      [
        "Ġra",
        "bbit"
      ],
      [
        "Ġdif",
        "fere"
      ],
      [
        "Ġa",
        "c"
      ],
      [
        "Ġbr",
        "ight"
      ],
      [
        "Ġr",
        "ight"
      ],
      [
        "d",
        "ay"
      ],
      [
        "Ġfo",
        "llow"
      ],
      [
        "Ġevery",
        "one"
      ],
      [
        "Ġbo",
        "at"
      ],
      [
        "Ġstr",
        "ong"
      ],
      [
        "A",
        "nna"
      ],
      [
        "Ġu",
        "se"
      ],
      [
        "Ġs",
        "qu"
      ],
      [
        "Ġwat",
        "ched"
      ],
      [
        "Ġ",
        "our"
      ],
      [
        "Ġw",
        "here"
      ],
      [
        "ĠSp",
        "ot"
      ],
      [
        "Ġy",
        "e"
      ],
      [
        "at",
        "h"
      ],
      [
        "er",
        "ed"
      ],
      [
        "Ġquick",
        "ly"
      ],
      [
        "Ġm",
        "or"
      ],
      [
        "Ġy",
        "ell"
      ],
      [
        "Ġbe",
        "en"
      ],
      [
        "Ġvo",
        "ice"
      ],
      [
        "S",
        "o"
      ],
      [
        "Ġdo",
        "es"
      ],
      [
        "ĠB",
        "ob"
      ],
      [
        "Ġch",
        "ild"
      ],
      [
        "n",
        "g"
      ],
      [
        "Ġfa",
        "ce"
      ],
      [
        "Ġdiffere",
        "nt"
      ],
      [
        "Ġcu",
        "ri"
      ],
      [
        "Ġh",
        "op"
      ],
      [
        "L",
        "ook"
      ],
      [
        "ĠMom",
        "my"
      ],
      [
        "an",
        "ge"
      ],
      [
        "Ġ",
        "N"
      ],
      [
        "Ġs",
        "ure"
      ],
      [
        "ĠS",
        "ue"
      ],
      [
        "Ġa",
        "m"
      ],
      [
        "Ġbec",
        "ame"
      ],
      [
        "a",
        "ught"
      ],
      [
        "S",
        "ara"
      ],
      [
        "Ġd",
        "ress"
      ],
      [
        "Ġgood",
        "bye"
      ],
      [
        "Ġpl",
        "ace"
      ],
      [
        "Ġclos",
        "er"
      ],
      [
        "Ġst",
        "ore"
      ],
      [
        "il",
        "a"
      ],
      [
        "Ġm",
        "ag"
      ],
      [
        "Ġh",
        "igh"
      ],
      [
        "Ġwar",
        "m"
      ],
      [
        "Ġ",
        "R"
      ],
      [
        "Ġfor",
        "g"
      ],
      [
        "Ġcuri",
        "ous"
      ],
      [
        "Ġt",
        "ell"
      ],
      [
        "nd",
        "ma"
      ],
      [
        "Ġc",
        "ook"
      ],
      [
        "un",
        "ny"
      ],
      [
        "Ġc",
        "ake"
      ],
      [
        "Ġbl",
        "ock"
      ],
      [
        "Ġbe",
        "l"
      ],
      [
        "m",
        "ore"
      ],
      [
        "c",
        "o"
      ],
      [
        "le",
        "ep"
      ],
      [
        "Ġany",
        "more"
      ],
      [
        "a",
        "ss"
      ],
      [
        "Ġop",
        "en"
      ],
      [
        "Ġn",
        "ight"
      ],
      [
        "J",
        "o"
      ],
      [
        "ou",
        "nt"
      ],
      [
        "Ġfa",
        "v"
      ],
      [
        "Ġhe",
        "re"
      ],
      [
        "Ġp",
        "ull"
      ],
      [
        "it",
        "c"
      ],
      [
        "Ġf",
        "irst"
      ],
      [
        "Ġth",
        "ree"
      ],
      [
        "Ġ",
        "z"
      ],
      [
        "a",
        "ched"
      ],
      [
        "ĠT",
        "h"
      ],
      [
        "ir",
        "ed"
      ],
      [
        "Ġp",
        "ain"
      ],
      [
        "is",
        "s"
      ],
      [
        "Ġp",
        "u"
      ],
      [
        "Ġb",
        "us"
      ],
      [
        "im",
        "es"
      ],
      [
        "H",
        "er"
      ],
      [
        "Ġgra",
        "bbed"
      ],
      [
        "Ġle",
        "a"
      ],
      [
        "or",
        "n"
      ],
      [
        "Ġr",
        "u"
      ],
      [
        "C",
        "an"
      ],
      [
        "Ġsw",
        "eet"
      ],
      [
        "Ġfe",
        "ll"
      ],
      [
        "Ġk",
        "id"
      ],
      [
        "Ġon",
        "ly"
      ],
      [
        "Ġbut",
        "ter"
      ],
      [
        "Ġbird",
        "s"
      ],
      [
        "is",
        "y"
      ],
      [
        "Ġm",
        "on"
      ],
      [
        "Ġse",
        "es"
      ],
      [
        "itc",
        "hen"
      ],
      [
        "Ġk",
        "itchen"
      ],
      [
        "Ġjump",
        "ed"
      ],
      [
        "Ġfi",
        "re"
      ],
      [
        "Ġcon",
        "t"
      ],
      [
        "Ġb",
        "it"
      ],
      [
        "Ġsa",
        "nd"
      ],
      [
        "Ġb",
        "a"
      ],
      [
        "Ġfl",
        "o"
      ],
      [
        "Ġst",
        "op"
      ],
      [
        "Ġhelp",
        "ed"
      ],
      [
        "Ġgl",
        "ad"
      ],
      [
        "Ġhapp",
        "ened"
      ],
      [
        "Ġgra",
        "ss"
      ],
      [
        "Ġp",
        "er"
      ],
      [
        "Ġs",
        "ing"
      ],
      [
        "Ġshout",
        "ed"
      ],
      [
        "Ġc",
        "ra"
      ],
      [
        "Ġd",
        "r"
      ],
      [
        "Ġt",
        "ri"
      ],
      [
        "ĠSara",
        "h"
      ],
      [
        "ĠD",
        "o"
      ],
      [
        "nt",
        "s"
      ],
      [
        "Ġc",
        "r"
      ],
      [
        "ĠL",
        "et"
      ],
      [
        "Ġbe",
        "h"
      ],
      [
        "Ġbr",
        "other"
      ],
      [
        "Ġre",
        "ached"
      ],
      [
        "Ġstor",
        "y"
      ],
      [
        "pp",
        "y"
      ],
      [
        "A",
        "fter"
      ],
      [
        "a",
        "ir"
      ],
      [
        "Ġreal",
        "ized"
      ],
      [
        "in",
        "s"
      ],
      [
        "Ġb",
        "unny"
      ],
      [
        "Ġl",
        "ady"
      ],
      [
        "ĠJ",
        "ane"
      ],
      [
        "Ġy",
        "ummy"
      ],
      [
        "ĠA",
        "s"
      ],
      [
        "Ġm",
        "ess"
      ],
      [
        "Ġha",
        "ving"
      ],
      [
        "Ġso",
        "ft"
      ],
      [
        "Ġunder",
        "st"
      ],
      [
        "Ġg",
        "ame"
      ],
      [
        "Ġl",
        "ess"
      ],
      [
        "ak",
        "es"
      ],
      [
        "Ġat",
        "e"
      ],
      [
        "Ġc",
        "re"
      ],
      [
        "'",
        "re"
      ],
      [
        "Ġpr",
        "in"
      ],
      [
        "Ġpret",
        "end"
      ],
      [
        "ĠEvery",
        "one"
      ],
      [
        "Ġdra",
        "w"
      ],
      [
        "Ġh",
        "at"
      ],
      [
        "Ġm",
        "um"
      ],
      [
        "Ġp",
        "are"
      ],
      [
        "Ġre",
        "st"
      ],
      [
        "Ġfav",
        "or"
      ],
      [
        "Ġthr",
        "ough"
      ],
      [
        "Ġre",
        "ady"
      ],
      [
        "Ġp",
        "ap"
      ],
      [
        "z",
        "y"
      ],
      [
        "Ġfavor",
        "ite"
      ],
      [
        "Ġth",
        "ing"
      ],
      [
        "w",
        "here"
      ],
      [
        "k",
        "en"
      ],
      [
        "Ġlook",
        "s"
      ],
      [
        "ĠT",
        "hat"
      ],
      [
        "Ġre",
        "ally"
      ],
      [
        "ĠC",
        "an"
      ],
      [
        "Ġmag",
        "ic"
      ],
      [
        "Ġd",
        "uck"
      ],
      [
        "Ġma",
        "king"
      ],
      [
        "Ġc",
        "ut"
      ],
      [
        "at",
        "er"
      ],
      [
        "Ġwor",
        "ld"
      ],
      [
        "Ġhim",
        "self"
      ],
      [
        "at",
        "her"
      ],
      [
        "Ġbe",
        "gan"
      ],
      [
        "Ġd",
        "one"
      ],
      [
        "fu",
        "lly"
      ],
      [
        "Ġcom",
        "ing"
      ],
      [
        "Mom",
        "my"
      ],
      [
        "ĠJo",
        "e"
      ],
      [
        "Ġkid",
        "s"
      ],
      [
        "Ġcar",
        "s"
      ],
      [
        "Ġp",
        "rom"
      ],
      [
        "Ġpo",
        "nd"
      ],
      [
        "Ġwa",
        "ved"
      ],
      [
        "Ġt",
        "ired"
      ],
      [
        "Ġto",
        "uch"
      ],
      [
        "Ġwh",
        "y"
      ],
      [
        "Ġf",
        "ro"
      ],
      [
        "b",
        "o"
      ],
      [
        "st",
        "er"
      ],
      [
        "Ġbutter",
        "f"
      ],
      [
        "Ġfi",
        "x"
      ],
      [
        "W",
        "ow"
      ],
      [
        "Ġst",
        "e"
      ],
      [
        "Ġflow",
        "er"
      ],
      [
        "Ġp",
        "art"
      ],
      [
        "Ġwor",
        "ry"
      ],
      [
        "Ġf",
        "ill"
      ],
      [
        "Ġnam",
        "e"
      ],
      [
        "Ġfun",
        "ny"
      ],
      [
        "Ġcat",
        "ch"
      ],
      [
        "Ġm",
        "ouse"
      ],
      [
        "Ġc",
        "ried"
      ],
      [
        "s",
        "h"
      ],
      [
        "Ġu",
        "sed"
      ],
      [
        "Ġp",
        "us"
      ],
      [
        "Ġdel",
        "ic"
      ],
      [
        "Ġse",
        "en"
      ],
      [
        "Ġblock",
        "s"
      ],
      [
        "Ġha",
        "ir"
      ],
      [
        "Ġpare",
        "nts"
      ],
      [
        "ig",
        "n"
      ],
      [
        "i",
        "ent"
      ],
      [
        "re",
        "l"
      ],
      [
        "Ġan",
        "other"
      ],
      [
        "Ġho",
        "ld"
      ],
      [
        "u",
        "ff"
      ],
      [
        "one",
        "y"
      ],
      [
        "ed",
        "dy"
      ],
      [
        "Ġc",
        "ool"
      ],
      [
        "a",
        "isy"
      ],
      [
        "Ġgre",
        "en"
      ],
      [
        "o",
        "lly"
      ],
      [
        "Ġto",
        "p"
      ],
      [
        "Ġta",
        "st"
      ],
      [
        "Ġl",
        "ight"
      ],
      [
        "Ġho",
        "pped"
      ],
      [
        "i",
        "ver"
      ],
      [
        "m",
        "er"
      ],
      [
        "h",
        "y"
      ],
      [
        "Ġdo",
        "ing"
      ],
      [
        "Ġless",
        "on"
      ],
      [
        "Ġthan",
        "k"
      ],
      [
        "Ġsurpr",
        "ise"
      ],
      [
        "ĠJo",
        "hn"
      ],
      [
        "Ġli",
        "kes"
      ],
      [
        "at",
        "ion"
      ],
      [
        "\"",
        "."
      ],
      [
        "ard",
        "s"
      ],
      [
        "Ġsw",
        "im"
      ],
      [
        "Ġg",
        "i"
      ],
      [
        "Ġpap",
        "er"
      ],
      [
        "Ġflo",
        "or"
      ],
      [
        "Ġw",
        "ished"
      ],
      [
        "A",
        "s"
      ],
      [
        "Ġd",
        "ri"
      ],
      [
        "Ġwind",
        "ow"
      ],
      [
        "D",
        "on"
      ],
      [
        "S",
        "am"
      ],
      [
        "Ġsm",
        "ell"
      ],
      [
        "Tim",
        "my"
      ],
      [
        "Ġb",
        "ag"
      ],
      [
        "Ġbeh",
        "ind"
      ],
      [
        "Ġd",
        "ark"
      ],
      [
        "Ġw",
        "ood"
      ],
      [
        "Ġf",
        "ull"
      ],
      [
        "Ġtre",
        "es"
      ],
      [
        "Ġd",
        "ro"
      ],
      [
        "Ġrun",
        "ning"
      ],
      [
        "Ġre",
        "ad"
      ],
      [
        "i",
        "ke"
      ],
      [
        "Ġwor",
        "ked"
      ],
      [
        "Ġsp",
        "ot"
      ],
      [
        "Ġ",
        "-"
      ],
      [
        "Ġd",
        "in"
      ],
      [
        "Ġb",
        "ow"
      ],
      [
        "and",
        "y"
      ],
      [
        "Ġyell",
        "ow"
      ],
      [
        "re",
        "n"
      ],
      [
        "u",
        "l"
      ],
      [
        "Ġsh",
        "o"
      ],
      [
        "Ġye",
        "ars"
      ],
      [
        "u",
        "ed"
      ],
      [
        "Ġs",
        "leep"
      ],
      [
        "Ġs",
        "at"
      ],
      [
        "Ġho",
        "le"
      ],
      [
        "ar",
        "ing"
      ],
      [
        "Ġhapp",
        "ily"
      ],
      [
        "Ġlaug",
        "h"
      ],
      [
        "el",
        "y"
      ],
      [
        "Ġfro",
        "g"
      ],
      [
        "Ġsurpr",
        "ised"
      ],
      [
        "ĠI",
        "n"
      ],
      [
        "Ġs",
        "et"
      ],
      [
        "Ġsw",
        "ing"
      ],
      [
        "Jo",
        "hn"
      ],
      [
        "re",
        "w"
      ],
      [
        "Ġsl",
        "ow"
      ],
      [
        "Ġremember",
        "ed"
      ],
      [
        "Ġcare",
        "fully"
      ],
      [
        "Ġhe",
        "ld"
      ],
      [
        "Ġlo",
        "st"
      ],
      [
        "Ġco",
        "ld"
      ],
      [
        "H",
        "ell"
      ],
      [
        "Hell",
        "o"
      ],
      [
        "Ġbutterf",
        "ly"
      ],
      [
        "Ġbu",
        "y"
      ],
      [
        "Ġ",
        "ice"
      ],
      [
        "u",
        "it"
      ],
      [
        "on",
        "s"
      ],
      [
        "Ġneed",
        "ed"
      ],
      [
        "Ġmo",
        "ve"
      ],
      [
        "Ġle",
        "ft"
      ],
      [
        "Ġhe",
        "ar"
      ],
      [
        "Ġany",
        "thing"
      ],
      [
        "Ġper",
        "f"
      ],
      [
        "Ġenjoy",
        "ed"
      ],
      [
        "Ġwr",
        "ong"
      ],
      [
        "Ġfollow",
        "ed"
      ],
      [
        "Ġfa",
        "ir"
      ],
      [
        "re",
        "ed"
      ],
      [
        "Ġt",
        "all"
      ],
      [
        "Ġd",
        "ream"
      ],
      [
        "Ġh",
        "un"
      ],
      [
        "Ġe",
        "l"
      ],
      [
        "Ġar",
        "ri"
      ],
      [
        "Ġchild",
        "ren"
      ],
      [
        "c",
        "ess"
      ],
      [
        "Ġta",
        "ble"
      ],
      [
        "in",
        "ally"
      ],
      [
        "Ġa",
        "ir"
      ],
      [
        "Ġbook",
        "s"
      ],
      [
        "en",
        "s"
      ],
      [
        "Ġd",
        "ir"
      ],
      [
        "Ġfriend",
        "ly"
      ],
      [
        "Ġh",
        "ill"
      ],
      [
        "Ġunderst",
        "and"
      ],
      [
        "Ġfin",
        "ished"
      ],
      [
        "ro",
        "ss"
      ],
      [
        "Ġp",
        "lease"
      ],
      [
        "Ġsn",
        "ow"
      ],
      [
        "Ġh",
        "ot"
      ],
      [
        "Ġher",
        "self"
      ],
      [
        "Ġdelic",
        "ious"
      ],
      [
        "Ġclo",
        "se"
      ],
      [
        "in",
        "ed"
      ],
      [
        "Ġh",
        "id"
      ],
      [
        "Ġcont",
        "in"
      ],
      [
        "d",
        "s"
      ],
      [
        "Ġm",
        "ight"
      ],
      [
        "ĠA",
        "fter"
      ],
      [
        "Ġar",
        "m"
      ],
      [
        "s",
        "p"
      ],
      [
        "Ġel",
        "se"
      ],
      [
        "Ġb",
        "ug"
      ],
      [
        "Ġforg",
        "ot"
      ],
      [
        "Ġarri",
        "ved"
      ],
      [
        "Ġcolor",
        "s"
      ],
      [
        "Ġc",
        "ast"
      ],
      [
        "l",
        "f"
      ],
      [
        "ie",
        "ld"
      ],
      [
        "ĠL",
        "ila"
      ],
      [
        "Ġbro",
        "ken"
      ],
      [
        "Ġg",
        "ent"
      ],
      [
        "Ġre",
        "l"
      ],
      [
        "Ġba",
        "by"
      ],
      [
        "Ġt",
        "ight"
      ],
      [
        "Ġwonder",
        "ful"
      ],
      [
        "ĠD",
        "aisy"
      ],
      [
        "Ġbu",
        "ild"
      ],
      [
        "Ġm",
        "at"
      ],
      [
        "Ġa",
        "ble"
      ],
      [
        "Ġs",
        "ong"
      ],
      [
        "The",
        "n"
      ],
      [
        "Ġg",
        "one"
      ],
      [
        "a",
        "v"
      ],
      [
        "as",
        "ure"
      ],
      [
        "Ġwant",
        "s"
      ],
      [
        "ĠN",
        "ow"
      ],
      [
        "Ġfill",
        "ed"
      ],
      [
        "Ġsqu",
        "ir"
      ],
      [
        "ĠBen",
        "ny"
      ],
      [
        "n",
        "er"
      ],
      [
        "ĠS",
        "ally"
      ],
      [
        "Ġwa",
        "ll"
      ],
      [
        "Ġcre",
        "at"
      ],
      [
        "Ġp",
        "at"
      ],
      [
        "O",
        "K"
      ],
      [
        "ro",
        "om"
      ],
      [
        "Ġsome",
        "one"
      ],
      [
        "Ġag",
        "reed"
      ],
      [
        "Ġy",
        "es"
      ],
      [
        "i",
        "ch"
      ],
      [
        "Ġlea",
        "ves"
      ],
      [
        "Ġc",
        "ount"
      ],
      [
        "Ġp",
        "ink"
      ],
      [
        "Ġsquir",
        "rel"
      ],
      [
        "Ġcontin",
        "ued"
      ],
      [
        "as",
        "k"
      ],
      [
        "J",
        "ack"
      ],
      [
        "ĠThe",
        "re"
      ],
      [
        "am",
        "a"
      ],
      [
        "e",
        "e"
      ],
      [
        "'",
        "ll"
      ],
      [
        "e",
        "y"
      ],
      [
        "ĠE",
        "m"
      ],
      [
        "Ġv",
        "is"
      ],
      [
        "Ġli",
        "on"
      ],
      [
        "Ġen",
        "ough"
      ],
      [
        "Ġbre",
        "ak"
      ],
      [
        "F",
        "rom"
      ],
      [
        "ĠTom",
        "my"
      ],
      [
        "Ġstay",
        "ed"
      ],
      [
        "Ġget",
        "ting"
      ],
      [
        "Ġpo",
        "in"
      ],
      [
        "Ġmor",
        "ning"
      ],
      [
        "Ġmom",
        "ent"
      ],
      [
        "ĠM",
        "aybe"
      ],
      [
        "Ġfin",
        "ally"
      ],
      [
        "a",
        "pp"
      ],
      [
        "as",
        "h"
      ],
      [
        "Ġf",
        "all"
      ],
      [
        "Ġgra",
        "ndma"
      ],
      [
        "Ġcook",
        "ies"
      ],
      [
        "ri",
        "es"
      ],
      [
        "Ġj",
        "u"
      ],
      [
        "Ġhun",
        "gry"
      ],
      [
        "Ġsc",
        "ary"
      ],
      [
        "an",
        "ce"
      ],
      [
        "g",
        "on"
      ],
      [
        "Ġturn",
        "ed"
      ],
      [
        "Ġf",
        "ight"
      ],
      [
        "Ġsomet",
        "imes"
      ],
      [
        "Ġp",
        "i"
      ],
      [
        "r",
        "ow"
      ],
      [
        "Ġm",
        "akes"
      ],
      [
        "Ġbe",
        "ach"
      ],
      [
        "Ġw",
        "et"
      ],
      [
        "ĠTh",
        "is"
      ],
      [
        "Ġtry",
        "ing"
      ],
      [
        "c",
        "ed"
      ],
      [
        "Ġ",
        "K"
      ],
      [
        "ic",
        "y"
      ],
      [
        "Ġamaz",
        "ing"
      ],
      [
        "Ġsmil",
        "es"
      ],
      [
        "Ġfe",
        "w"
      ],
      [
        "ĠW",
        "hat"
      ],
      [
        "r",
        "ed"
      ],
      [
        "Ġother",
        "s"
      ],
      [
        "Ġclimb",
        "ed"
      ],
      [
        "Ġm",
        "other"
      ],
      [
        "o",
        "om"
      ],
      [
        "Ġdin",
        "ner"
      ],
      [
        "a",
        "pped"
      ],
      [
        "Ġcom",
        "p"
      ],
      [
        "Ġlist",
        "ened"
      ],
      [
        "Ġtal",
        "k"
      ],
      [
        "Th",
        "is"
      ],
      [
        "ke",
        "y"
      ],
      [
        "Ġpicture",
        "s"
      ],
      [
        "Ġcast",
        "le"
      ],
      [
        "Ġc",
        "ream"
      ],
      [
        "Ġm",
        "et"
      ],
      [
        "A",
        "t"
      ],
      [
        "Ġperf",
        "ect"
      ],
      [
        "r",
        "ot"
      ],
      [
        "Ġmu",
        "s"
      ],
      [
        "Ġcl",
        "ot"
      ],
      [
        "Ġwh",
        "ite"
      ],
      [
        "Ġf",
        "ur"
      ],
      [
        "Ġdad",
        "dy"
      ],
      [
        "or",
        "ing"
      ],
      [
        "H",
        "is"
      ],
      [
        "Ġclot",
        "hes"
      ],
      [
        "l",
        "c"
      ],
      [
        "Ġta",
        "il"
      ],
      [
        "am",
        "p"
      ],
      [
        "ou",
        "p"
      ],
      [
        "Ġball",
        "oon"
      ],
      [
        "Ġpu",
        "ppy"
      ],
      [
        "Ġm",
        "ar"
      ],
      [
        "ct",
        "or"
      ],
      [
        "Ġp",
        "et"
      ],
      [
        "ĠG",
        "ra"
      ],
      [
        "Ġjo",
        "y"
      ],
      [
        "Ġal",
        "one"
      ],
      [
        "Ġpo",
        "l"
      ],
      [
        "Ġask",
        "s"
      ],
      [
        "en",
        "ce"
      ],
      [
        "O",
        "h"
      ],
      [
        "m",
        "an"
      ],
      [
        "ĠB",
        "illy"
      ],
      [
        "Ġsa",
        "il"
      ],
      [
        "Ġwas",
        "n"
      ],
      [
        "Ġbr",
        "ought"
      ],
      [
        "Ġsp",
        "l"
      ],
      [
        "Ġsp",
        "ark"
      ],
      [
        "Ġwood",
        "s"
      ],
      [
        "Ġevery",
        "thing"
      ],
      [
        "at",
        "ed"
      ],
      [
        "Ġde",
        "ep"
      ],
      [
        "Ġstr",
        "ange"
      ],
      [
        "d",
        "er"
      ],
      [
        "is",
        "ter"
      ],
      [
        "ĠT",
        "o"
      ],
      [
        "Ġpull",
        "ed"
      ],
      [
        "Ġs",
        "it"
      ],
      [
        "Ġr",
        "ide"
      ],
      [
        "Ġdan",
        "ger"
      ],
      [
        "Ġse",
        "ar"
      ],
      [
        "uff",
        "y"
      ],
      [
        "Ġpl",
        "an"
      ],
      [
        "Ġgr",
        "ow"
      ],
      [
        "Ġro",
        "ll"
      ],
      [
        "l",
        "ing"
      ],
      [
        "ot",
        "t"
      ],
      [
        "Ġw",
        "on"
      ],
      [
        "et",
        "er"
      ],
      [
        "Ġwa",
        "ited"
      ],
      [
        "Ġh",
        "ide"
      ],
      [
        "ĠJ",
        "en"
      ],
      [
        "Ġvis",
        "it"
      ],
      [
        "uck",
        "y"
      ],
      [
        "Ġp",
        "ie"
      ],
      [
        "Ġfo",
        "x"
      ],
      [
        "Ġamaz",
        "ed"
      ],
      [
        "ow",
        "er"
      ],
      [
        "m",
        "ed"
      ],
      [
        "Ġle",
        "ave"
      ],
      [
        "m",
        "e"
      ],
      [
        "Ġtre",
        "at"
      ],
      [
        "z",
        "z"
      ],
      [
        "o",
        "s"
      ],
      [
        "an",
        "g"
      ],
      [
        "Ġmus",
        "ic"
      ],
      [
        "Ġt",
        "eddy"
      ],
      [
        "e",
        "ver"
      ],
      [
        "ĠA",
        "my"
      ],
      [
        "Ġtow",
        "ards"
      ],
      [
        "Ġrun",
        "s"
      ],
      [
        "Ġs",
        "illy"
      ],
      [
        "ap",
        "e"
      ],
      [
        "Ġthink",
        "s"
      ],
      [
        "Ġla",
        "nd"
      ],
      [
        "Ġli",
        "ving"
      ],
      [
        "Ġcl",
        "oud"
      ],
      [
        "M",
        "ax"
      ],
      [
        "Ġfly",
        "ing"
      ],
      [
        "M",
        "aybe"
      ],
      [
        "Ġp",
        "en"
      ],
      [
        "Ġp",
        "re"
      ],
      [
        "Ġf",
        "ield"
      ],
      [
        "Ġsh",
        "ared"
      ],
      [
        "am",
        "es"
      ],
      [
        "ig",
        "g"
      ],
      [
        "ain",
        "ed"
      ],
      [
        "is",
        "es"
      ],
      [
        "Ġprom",
        "ised"
      ],
      [
        "O",
        "kay"
      ],
      [
        "ug",
        "g"
      ],
      [
        "Ġqu",
        "i"
      ],
      [
        "op",
        "e"
      ],
      [
        "Ġown",
        "er"
      ],
      [
        "g",
        "s"
      ],
      [
        "o",
        "l"
      ],
      [
        "Ġg",
        "u"
      ],
      [
        "Ġjo",
        "b"
      ],
      [
        "Ġpain",
        "t"
      ],
      [
        "Ġr",
        "ace"
      ],
      [
        "th",
        "y"
      ],
      [
        "Ġbel",
        "ie"
      ],
      [
        "ck",
        "et"
      ],
      [
        "Ġp",
        "a"
      ],
      [
        "Ġs",
        "ide"
      ],
      [
        "Ġm",
        "oney"
      ],
      [
        "Ġmor",
        "al"
      ],
      [
        "Ġl",
        "ake"
      ],
      [
        "Ġpart",
        "y"
      ],
      [
        "Ġs",
        "ec"
      ],
      [
        "u",
        "ally"
      ],
      [
        "or",
        "m"
      ],
      [
        "Ġqui",
        "et"
      ],
      [
        "c",
        "le"
      ],
      [
        "Ġs",
        "ister"
      ],
      [
        "Ġwe",
        "ar"
      ],
      [
        "av",
        "y"
      ],
      [
        "ec",
        "es"
      ],
      [
        "Ġmu",
        "st"
      ],
      [
        "Ġwor",
        "ried"
      ],
      [
        "Ġpi",
        "eces"
      ],
      [
        "ĠJ",
        "im"
      ],
      [
        "Ġfast",
        "er"
      ],
      [
        "Ġbr",
        "an"
      ],
      [
        "Ġcu",
        "p"
      ],
      [
        "Ġslow",
        "ly"
      ],
      [
        "s",
        "w"
      ],
      [
        "u",
        "p"
      ],
      [
        "un",
        "ch"
      ],
      [
        "Ġcolor",
        "ful"
      ],
      [
        "i",
        "x"
      ],
      [
        "Ġan",
        "sw"
      ],
      [
        "as",
        "ed"
      ],
      [
        "Ġo",
        "w"
      ],
      [
        "Ġbro",
        "ke"
      ],
      [
        "Ġg",
        "if"
      ],
      [
        "Ġgr",
        "ate"
      ],
      [
        "Ġwe",
        "lc"
      ],
      [
        "Ġb",
        "ike"
      ],
      [
        "Ġdan",
        "ce"
      ],
      [
        "Ġb",
        "ott"
      ],
      [
        "Ġc",
        "andy"
      ],
      [
        "z",
        "e"
      ],
      [
        "Ġbig",
        "ger"
      ],
      [
        "Ġre",
        "ach"
      ],
      [
        "Ġbl",
        "ank"
      ],
      [
        "Ġgrate",
        "ful"
      ],
      [
        "p",
        "h"
      ],
      [
        "Ġe",
        "le"
      ],
      [
        "Ġs",
        "uch"
      ],
      [
        "f",
        "ort"
      ],
      [
        "Ġpl",
        "ant"
      ],
      [
        "ĠA",
        "ll"
      ],
      [
        "Ġsm",
        "art"
      ],
      [
        "Ġpr",
        "o"
      ],
      [
        "le",
        "ss"
      ],
      [
        "Ġp",
        "ot"
      ],
      [
        "Ġch",
        "o"
      ],
      [
        "Ġtra",
        "in"
      ],
      [
        "Ġtre",
        "asure"
      ],
      [
        "Ġblank",
        "et"
      ],
      [
        "Ġsn",
        "ack"
      ],
      [
        "i",
        "re"
      ],
      [
        "Ġsc",
        "ream"
      ],
      [
        "Ġdanger",
        "ous"
      ],
      [
        "Ġmagic",
        "al"
      ],
      [
        "Ġmon",
        "ster"
      ],
      [
        "Ġbl",
        "ack"
      ],
      [
        "Ġw",
        "in"
      ],
      [
        "Ġb",
        "ar"
      ],
      [
        "Ġr",
        "iver"
      ],
      [
        "out",
        "h"
      ],
      [
        "Ġdra",
        "gon"
      ],
      [
        "Ġ",
        "ve"
      ],
      [
        "Ġn",
        "ap"
      ],
      [
        "Ġtow",
        "er"
      ],
      [
        "Ġm",
        "outh"
      ],
      [
        "Ġjo",
        "in"
      ],
      [
        "Ġprin",
        "cess"
      ],
      [
        "S",
        "ure"
      ],
      [
        "e",
        "ar"
      ],
      [
        "ck",
        "ed"
      ],
      [
        "Ġe",
        "m"
      ],
      [
        "Ġevery",
        "where"
      ],
      [
        "Ġdoll",
        "s"
      ],
      [
        "Ġhelp",
        "ing"
      ],
      [
        "Ġj",
        "e"
      ],
      [
        "Ġmo",
        "st"
      ],
      [
        "i",
        "pped"
      ],
      [
        "Ġmon",
        "key"
      ],
      [
        "Ġac",
        "ross"
      ],
      [
        "Ġdis",
        "app"
      ],
      [
        "Ġtw",
        "ins"
      ],
      [
        "m",
        "ing"
      ],
      [
        "Ġth",
        "rew"
      ],
      [
        "Ġfar",
        "mer"
      ],
      [
        "Ġs",
        "ign"
      ],
      [
        "s",
        "et"
      ],
      [
        "Ġdo",
        "ctor"
      ],
      [
        "d",
        "e"
      ],
      [
        "Ġste",
        "pped"
      ],
      [
        "Ġsa",
        "me"
      ],
      [
        "Ġdir",
        "ty"
      ],
      [
        "Ġhe",
        "avy"
      ],
      [
        "or",
        "ed"
      ],
      [
        "Ġbe",
        "e"
      ],
      [
        "W",
        "hy"
      ],
      [
        "Ġcry",
        "ing"
      ],
      [
        "Ġfr",
        "uit"
      ],
      [
        "Ġb",
        "ite"
      ],
      [
        "e",
        "ared"
      ],
      [
        "H",
        "i"
      ],
      [
        "ĠDad",
        "dy"
      ],
      [
        "Ġcar",
        "rot"
      ],
      [
        "Ġwor",
        "ds"
      ],
      [
        "Ġbow",
        "l"
      ],
      [
        "M",
        "ia"
      ],
      [
        "Ġhop",
        "ed"
      ],
      [
        "Ġhe",
        "al"
      ],
      [
        "Ġst",
        "re"
      ],
      [
        "b",
        "ble"
      ],
      [
        "Ġhe",
        "art"
      ],
      [
        "Ġclo",
        "sed"
      ],
      [
        "e",
        "re"
      ],
      [
        "Ġp",
        "ass"
      ],
      [
        "Ġsp",
        "r"
      ],
      [
        "Ġh",
        "ig"
      ],
      [
        "ĠF",
        "l"
      ],
      [
        "Ġbelie",
        "ve"
      ],
      [
        "Ġwould",
        "n"
      ],
      [
        "Ġb",
        "ath"
      ],
      [
        "ĠM",
        "r"
      ],
      [
        "id",
        "ent"
      ],
      [
        "Ġst",
        "uck"
      ],
      [
        "Ġte",
        "ac"
      ],
      [
        "Ġac",
        "c"
      ],
      [
        "Ġto",
        "wn"
      ],
      [
        "ask",
        "et"
      ],
      [
        "Ġb",
        "asket"
      ],
      [
        "ĠJ",
        "ill"
      ],
      [
        "Ġc",
        "our"
      ],
      [
        "ch",
        "ool"
      ],
      [
        "Ġfeel",
        "s"
      ],
      [
        "Ġbut",
        "t"
      ],
      [
        "ĠM",
        "olly"
      ],
      [
        "Ġb",
        "uck"
      ],
      [
        "Ġcr",
        "ay"
      ],
      [
        "Ġm",
        "ix"
      ],
      [
        "Ġat",
        "t"
      ],
      [
        "Ġbr",
        "own"
      ],
      [
        "Ġco",
        "ll"
      ],
      [
        "it",
        "ing"
      ],
      [
        "Ġs",
        "uddenly"
      ],
      [
        "Ġfair",
        "y"
      ],
      [
        "Ġs",
        "chool"
      ],
      [
        "Ġch",
        "air"
      ],
      [
        "Ġeat",
        "ing"
      ],
      [
        "Ġcour",
        "se"
      ],
      [
        "Ġpus",
        "hed"
      ],
      [
        "Ġcl",
        "apped"
      ],
      [
        "Ġgent",
        "le"
      ],
      [
        "or",
        "d"
      ],
      [
        "vent",
        "ually"
      ],
      [
        "Ġm",
        "in"
      ],
      [
        "Ġp",
        "ack"
      ],
      [
        "Ġh",
        "it"
      ],
      [
        "pp",
        "ing"
      ],
      [
        "Ġp",
        "ers"
      ],
      [
        "Ġne",
        "igh"
      ],
      [
        "is",
        "sed"
      ],
      [
        "t",
        "s"
      ],
      [
        "Ġwith",
        "out"
      ],
      [
        "Ġst",
        "and"
      ],
      [
        "Ġneigh",
        "b"
      ],
      [
        "Ġpo",
        "cket"
      ],
      [
        "or",
        "s"
      ],
      [
        "Ġhig",
        "her"
      ],
      [
        "Ġwelc",
        "ome"
      ],
      [
        "Ġteac",
        "her"
      ],
      [
        "Ġdro",
        "ve"
      ],
      [
        "Ġsw",
        "ings"
      ],
      [
        "or",
        "row"
      ],
      [
        "Ġy",
        "ard"
      ],
      [
        "Ġsm",
        "o"
      ],
      [
        "i",
        "er"
      ],
      [
        "Ġto",
        "day"
      ],
      [
        "Ġno",
        "ises"
      ],
      [
        "Ġfor",
        "get"
      ],
      [
        "Ġche",
        "ered"
      ],
      [
        "our",
        "n"
      ],
      [
        "Ġg",
        "ames"
      ],
      [
        "h",
        "o"
      ],
      [
        "Ġb",
        "en"
      ],
      [
        "Ġw",
        "ings"
      ],
      [
        "Ġj",
        "ourn"
      ],
      [
        "b",
        "r"
      ],
      [
        "Ġne",
        "ck"
      ],
      [
        "Ġturn",
        "s"
      ],
      [
        "Ġpie",
        "ce"
      ],
      [
        "um",
        "b"
      ],
      [
        "ra",
        "ct"
      ],
      [
        "L",
        "ila"
      ],
      [
        "Ġlong",
        "er"
      ],
      [
        "Ġd",
        "ry"
      ],
      [
        "Ġf",
        "ree"
      ],
      [
        "Ġsa",
        "ng"
      ],
      [
        "ve",
        "l"
      ],
      [
        "F",
        "inally"
      ],
      [
        "e",
        "ad"
      ],
      [
        "Ġhug",
        "s"
      ],
      [
        "Ġexpl",
        "ained"
      ],
      [
        "i",
        "ble"
      ],
      [
        "ou",
        "n"
      ],
      [
        "Ġin",
        "st"
      ],
      [
        "Ġc",
        "orn"
      ],
      [
        "ph",
        "ant"
      ],
      [
        "c",
        "y"
      ],
      [
        "Ġhapp",
        "en"
      ],
      [
        "Ġacc",
        "ident"
      ],
      [
        "Ġal",
        "ong"
      ],
      [
        "Ġthr",
        "ow"
      ],
      [
        "Ġl",
        "ate"
      ],
      [
        "Ġsho",
        "es"
      ],
      [
        "Ġm",
        "iss"
      ],
      [
        "Ġwe",
        "ll"
      ],
      [
        "c",
        "hes"
      ],
      [
        "Ġyou",
        "ng"
      ],
      [
        "Ġl",
        "on"
      ],
      [
        "Ġtr",
        "ou"
      ],
      [
        "m",
        "ent"
      ],
      [
        "itt",
        "ing"
      ],
      [
        "Ġse",
        "a"
      ],
      [
        "Ġsec",
        "ret"
      ],
      [
        "Ġstor",
        "ies"
      ],
      [
        "ĠM",
        "ary"
      ],
      [
        "Ġsh",
        "ap"
      ],
      [
        "Ġele",
        "phant"
      ],
      [
        "Ġw",
        "ish"
      ],
      [
        "Ġp",
        "urp"
      ],
      [
        "Ġsing",
        "ing"
      ],
      [
        "Ġlon",
        "ely"
      ],
      [
        "Ġadventure",
        "s"
      ],
      [
        "Ġsh",
        "ook"
      ],
      [
        "Ġf",
        "ence"
      ],
      [
        "Ġmo",
        "ved"
      ],
      [
        "Ġst",
        "ars"
      ],
      [
        "e",
        "k"
      ],
      [
        "Ġl",
        "unch"
      ],
      [
        "Ġd",
        "ist"
      ],
      [
        "Ġup",
        "set"
      ],
      [
        "Ġapp",
        "le"
      ],
      [
        "Ġst",
        "ar"
      ],
      [
        "Ġbel",
        "ong"
      ],
      [
        "bb",
        "y"
      ],
      [
        "Ġp",
        "h"
      ],
      [
        "aught",
        "y"
      ],
      [
        "Ġm",
        "ine"
      ],
      [
        "Ġn",
        "aughty"
      ],
      [
        "Ġke",
        "y"
      ],
      [
        "Ġrock",
        "s"
      ],
      [
        "Ġpl",
        "ac"
      ],
      [
        "Ġto",
        "m"
      ],
      [
        "Ġnear",
        "by"
      ],
      [
        "Ġc",
        "aught"
      ],
      [
        "D",
        "o"
      ],
      [
        "fu",
        "sed"
      ],
      [
        "Ġstre",
        "et"
      ],
      [
        "Ġw",
        "he"
      ],
      [
        "ĠGra",
        "ndma"
      ],
      [
        "Ġsh",
        "op"
      ],
      [
        "ount",
        "ain"
      ],
      [
        "Ġexpl",
        "oring"
      ],
      [
        "Ġdro",
        "pped"
      ],
      [
        "y",
        "ard"
      ],
      [
        "Ġpurp",
        "le"
      ],
      [
        "ock",
        "ed"
      ],
      [
        "Ġex",
        "p"
      ],
      [
        "Ġw",
        "ise"
      ],
      [
        "Ġj",
        "ar"
      ],
      [
        "Ġbr",
        "ing"
      ],
      [
        "Ġback",
        "yard"
      ],
      [
        "b",
        "ow"
      ],
      [
        "Ġta",
        "king"
      ],
      [
        "ll",
        "o"
      ],
      [
        "Ġor",
        "ange"
      ],
      [
        "a",
        "il"
      ],
      [
        "Ġsw",
        "am"
      ],
      [
        "Ġs",
        "oup"
      ],
      [
        "u",
        "b"
      ],
      [
        "Ġshap",
        "es"
      ],
      [
        "c",
        "es"
      ],
      [
        "w",
        "ard"
      ],
      [
        "Ġsee",
        "med"
      ],
      [
        "aught",
        "er"
      ],
      [
        "Ġin",
        "v"
      ],
      [
        "Ġow",
        "l"
      ],
      [
        "Ġfar",
        "m"
      ],
      [
        "Ġdr",
        "ink"
      ],
      [
        "Ġ",
        "es"
      ],
      [
        "Ġp",
        "ast"
      ],
      [
        "Ġre",
        "sp"
      ],
      [
        "Ġbuck",
        "et"
      ],
      [
        "Ġye",
        "ar"
      ],
      [
        "Ġc",
        "a"
      ],
      [
        "Ġrel",
        "ie"
      ],
      [
        "Ġma",
        "il"
      ],
      [
        "us",
        "h"
      ],
      [
        "ion",
        "s"
      ],
      [
        "ĠEm",
        "ma"
      ],
      [
        "Ġst",
        "u"
      ],
      [
        "Ġben",
        "ch"
      ],
      [
        "ĠTh",
        "ank"
      ],
      [
        "Ġa",
        "f"
      ],
      [
        "Ġb",
        "at"
      ],
      [
        "Ġbus",
        "y"
      ],
      [
        "ad",
        "ow"
      ],
      [
        "un",
        "g"
      ],
      [
        "Ġd",
        "es"
      ],
      [
        "Ġta",
        "kes"
      ],
      [
        "Ġm",
        "ad"
      ],
      [
        "Ġnot",
        "hing"
      ],
      [
        "Ġth",
        "ough"
      ],
      [
        "Ġ",
        "3"
      ],
      [
        "Ġno",
        "se"
      ],
      [
        "Ġju",
        "ice"
      ],
      [
        "A",
        "nd"
      ],
      [
        "Ġsound",
        "s"
      ],
      [
        "Ġwo",
        "ke"
      ],
      [
        "s",
        "y"
      ],
      [
        "it",
        "y"
      ],
      [
        "Ġarm",
        "s"
      ],
      [
        "Ġt",
        "iny"
      ],
      [
        "Ġcom",
        "es"
      ],
      [
        "es",
        "e"
      ],
      [
        "f",
        "ish"
      ],
      [
        "Ġd",
        "aughter"
      ],
      [
        "Ġwonder",
        "ed"
      ],
      [
        "c",
        "ing"
      ],
      [
        "Ġc",
        "ou"
      ],
      [
        "ck",
        "s"
      ],
      [
        "Ġrain",
        "bow"
      ],
      [
        "Ġm",
        "ark"
      ],
      [
        "Ġhold",
        "ing"
      ],
      [
        "Ġn",
        "est"
      ],
      [
        "Ġ",
        "O"
      ],
      [
        "Ġc",
        "ow"
      ],
      [
        "co",
        "l"
      ],
      [
        "Ġf",
        "it"
      ],
      [
        "th",
        "day"
      ],
      [
        "Ġs",
        "itting"
      ],
      [
        "t",
        "o"
      ],
      [
        "Ġbran",
        "ch"
      ],
      [
        "Ġb",
        "oun"
      ],
      [
        "in",
        "ing"
      ],
      [
        "Ġc",
        "ir"
      ],
      [
        "Ġp",
        "ig"
      ],
      [
        "re",
        "ad"
      ],
      [
        "o",
        "se"
      ],
      [
        "Ġs",
        "ick"
      ],
      [
        "ĠFl",
        "uffy"
      ],
      [
        "ra",
        "id"
      ],
      [
        "ĠIn",
        "side"
      ],
      [
        "Ġo",
        "b"
      ],
      [
        "Ġaf",
        "raid"
      ],
      [
        "w",
        "eet"
      ],
      [
        "Ġco",
        "at"
      ],
      [
        "Ġpat",
        "ient"
      ],
      [
        "Ġk",
        "ite"
      ],
      [
        "Ġr",
        "ound"
      ],
      [
        "Ġgif",
        "t"
      ],
      [
        "pp",
        "er"
      ],
      [
        "Ġdri",
        "ver"
      ],
      [
        "Ġm",
        "il"
      ],
      [
        "Ġcut",
        "e"
      ],
      [
        "ver",
        "ed"
      ],
      [
        "Ġfore",
        "ver"
      ],
      [
        "Ġto",
        "u"
      ],
      [
        "Ġtou",
        "ched"
      ],
      [
        "Ġpe",
        "ace"
      ],
      [
        "Ġrelie",
        "ved"
      ],
      [
        "Ġli",
        "ft"
      ],
      [
        "Ġprom",
        "ise"
      ],
      [
        "our",
        "s"
      ],
      [
        "id",
        "ge"
      ],
      [
        "Ġbre",
        "ad"
      ],
      [
        "Ġk",
        "ing"
      ],
      [
        "Ġsp",
        "oon"
      ],
      [
        "Ġhug",
        "e"
      ],
      [
        "Ġl",
        "etter"
      ],
      [
        "ĠC",
        "ome"
      ],
      [
        "Ġhe",
        "llo"
      ],
      [
        "Ġgra",
        "b"
      ],
      [
        "Ġcar",
        "ry"
      ],
      [
        "O",
        "f"
      ],
      [
        "st",
        "ing"
      ],
      [
        "Ġf",
        "ing"
      ],
      [
        "Ġbir",
        "thday"
      ],
      [
        "Ġb",
        "and"
      ],
      [
        "et",
        "h"
      ],
      [
        "o",
        "g"
      ],
      [
        "Ġa",
        "ct"
      ],
      [
        "itt",
        "ens"
      ],
      [
        "Ġche",
        "ese"
      ],
      [
        "ĠF",
        "inally"
      ],
      [
        "Ġp",
        "ower"
      ],
      [
        "ĠM",
        "ama"
      ],
      [
        "Ġint",
        "ere"
      ],
      [
        "le",
        "t"
      ],
      [
        "Ġexc",
        "iting"
      ],
      [
        "c",
        "er"
      ],
      [
        "Ġday",
        "s"
      ],
      [
        "He",
        "y"
      ],
      [
        "Ġswim",
        "ming"
      ],
      [
        "Ġshe",
        "ll"
      ],
      [
        "Ġwh",
        "ist"
      ],
      [
        "u",
        "nt"
      ],
      [
        "Ġon",
        "to"
      ],
      [
        "s",
        "c"
      ],
      [
        "Ġg",
        "igg"
      ],
      [
        "bo",
        "ard"
      ],
      [
        "Ġjourn",
        "ey"
      ],
      [
        "Ġcra",
        "w"
      ],
      [
        "Ġlaug",
        "hing"
      ],
      [
        "Ġcreat",
        "ure"
      ],
      [
        "Ġw",
        "ra"
      ],
      [
        "Ġsun",
        "ny"
      ],
      [
        "Ġli",
        "fe"
      ],
      [
        "Ġk",
        "ick"
      ],
      [
        "Ġm",
        "ist"
      ],
      [
        "Ġdis",
        "co"
      ],
      [
        "sh",
        "ine"
      ],
      [
        "Ġcom",
        "fort"
      ],
      [
        "Ġw",
        "om"
      ],
      [
        "ar",
        "p"
      ],
      [
        "Ġre",
        "t"
      ],
      [
        "Ġwom",
        "an"
      ],
      [
        "Ġhop",
        "e"
      ],
      [
        "p",
        "ed"
      ],
      [
        "it",
        "ch"
      ],
      [
        "g",
        "ged"
      ],
      [
        "Ġbus",
        "h"
      ],
      [
        "Ġgi",
        "ves"
      ],
      [
        "Ġinst",
        "ead"
      ],
      [
        "Ġco",
        "zy"
      ],
      [
        "Ġmil",
        "k"
      ],
      [
        "Ġput",
        "s"
      ],
      [
        "al",
        "m"
      ],
      [
        "Ġbott",
        "le"
      ],
      [
        "Ġin",
        "c"
      ],
      [
        "g",
        "g"
      ],
      [
        "Ġsh",
        "arp"
      ],
      [
        "Ġpoin",
        "ted"
      ],
      [
        "Ġim",
        "ag"
      ],
      [
        "Ġsp",
        "in"
      ],
      [
        "t",
        "en"
      ],
      [
        "Tom",
        "my"
      ],
      [
        "ĠSo",
        "on"
      ],
      [
        "Ġl",
        "ucky"
      ],
      [
        "Ġsun",
        "shine"
      ],
      [
        "Ġe",
        "ar"
      ],
      [
        "n",
        "ess"
      ],
      [
        "Ġc",
        "ave"
      ],
      [
        "Ġret",
        "urn"
      ],
      [
        "Ġwatch",
        "ing"
      ],
      [
        "Ġcoll",
        "ect"
      ],
      [
        "Ġduck",
        "s"
      ],
      [
        "Ġp",
        "udd"
      ],
      [
        "ĠSam",
        "my"
      ],
      [
        "Ġaccident",
        "ally"
      ],
      [
        "Ġh",
        "or"
      ],
      [
        "Ġe",
        "as"
      ],
      [
        "Ġl",
        "ater"
      ],
      [
        "Ġsmil",
        "ing"
      ],
      [
        "Ġs",
        "uc"
      ],
      [
        "b",
        "all"
      ],
      [
        "Ġh",
        "oney"
      ],
      [
        "Ġro",
        "ad"
      ],
      [
        "Ġany",
        "one"
      ],
      [
        "Ġf",
        "an"
      ],
      [
        "Ġsp",
        "o"
      ],
      [
        "Ġ",
        "ent"
      ],
      [
        "ble",
        "m"
      ],
      [
        "Ġpro",
        "blem"
      ],
      [
        "L",
        "ater"
      ],
      [
        "nd",
        "p"
      ],
      [
        "Ġb",
        "ought"
      ],
      [
        "el",
        "s"
      ],
      [
        "Ġtal",
        "ked"
      ],
      [
        "B",
        "ob"
      ],
      [
        "itt",
        "en"
      ],
      [
        "iz",
        "e"
      ],
      [
        "Ġg",
        "ather"
      ],
      [
        "r",
        "ound"
      ],
      [
        "Ġsear",
        "ched"
      ],
      [
        "Ġapp",
        "les"
      ],
      [
        "Ġpers",
        "on"
      ],
      [
        "G",
        "ood"
      ],
      [
        "Ġsand",
        "w"
      ],
      [
        "Ġheal",
        "thy"
      ],
      [
        "Ġc",
        "e"
      ],
      [
        "Ġme",
        "et"
      ],
      [
        "ir",
        "t"
      ],
      [
        "Ġtrou",
        "ble"
      ],
      [
        "Ġlo",
        "ves"
      ],
      [
        "Ġcray",
        "ons"
      ],
      [
        "Ġr",
        "ope"
      ],
      [
        "Ġintere",
        "sting"
      ],
      [
        "Ġp",
        "op"
      ],
      [
        "Ġcloud",
        "s"
      ],
      [
        "on",
        "t"
      ],
      [
        "Ġtast",
        "y"
      ],
      [
        "Ġs",
        "u"
      ],
      [
        "Ġk",
        "iss"
      ],
      [
        "Ġbutt",
        "on"
      ],
      [
        "Ġcle",
        "ver"
      ],
      [
        "Ġpl",
        "ane"
      ],
      [
        "am",
        "ed"
      ],
      [
        "Ġsmell",
        "ed"
      ],
      [
        "Ġad",
        "m"
      ],
      [
        "o",
        "ve"
      ],
      [
        "Ġp",
        "ile"
      ],
      [
        "Ġw",
        "ide"
      ],
      [
        "e",
        "b"
      ],
      [
        "Ġm",
        "ach"
      ],
      [
        "ĠT",
        "weet"
      ],
      [
        "Ġmat",
        "ter"
      ],
      [
        "Ġz",
        "oom"
      ],
      [
        "L",
        "ucy"
      ],
      [
        "Åĵ",
        "I"
      ],
      [
        "Ġpre",
        "s"
      ],
      [
        "Ġsh",
        "ining"
      ],
      [
        "ow",
        "ed"
      ],
      [
        "Ġp",
        "ar"
      ],
      [
        "Ġfr",
        "ont"
      ],
      [
        "Ġor",
        "gan"
      ],
      [
        "Ġpr",
        "ot"
      ],
      [
        "ĠW",
        "ith"
      ],
      [
        "Ġfe",
        "ather"
      ],
      [
        "Ġe",
        "ag"
      ],
      [
        "a",
        "ur"
      ],
      [
        "Ġp",
        "ath"
      ],
      [
        "Ġv",
        "ill"
      ],
      [
        "ĠJim",
        "my"
      ],
      [
        "Ġstor",
        "m"
      ],
      [
        "Ġspot",
        "ted"
      ],
      [
        "Ġresp",
        "ect"
      ],
      [
        "Ġscream",
        "ed"
      ],
      [
        "Ġprot",
        "ect"
      ],
      [
        "Ġmu",
        "d"
      ],
      [
        "ĠE",
        "ll"
      ],
      [
        "Ġp",
        "ract"
      ],
      [
        "ndp",
        "a"
      ],
      [
        "Ġz",
        "oo"
      ],
      [
        "C",
        "ome"
      ],
      [
        "Ġpu",
        "zz"
      ],
      [
        "Ġsa",
        "f"
      ],
      [
        "Ġa",
        "p"
      ],
      [
        "Ġsp",
        "id"
      ],
      [
        "er",
        "ly"
      ],
      [
        "Ġv",
        "al"
      ],
      [
        "Ġsn",
        "ake"
      ],
      [
        "is",
        "a"
      ],
      [
        "Ġmy",
        "ster"
      ],
      [
        "Ġas",
        "leep"
      ],
      [
        "Ġlove",
        "ly"
      ],
      [
        "ep",
        "end"
      ],
      [
        "Ġb",
        "ark"
      ],
      [
        "Ġqu",
        "est"
      ],
      [
        "Ġw",
        "ild"
      ],
      [
        "Ġneighb",
        "or"
      ],
      [
        "Ġapp",
        "eared"
      ],
      [
        "Ġansw",
        "er"
      ],
      [
        "Ġse",
        "at"
      ],
      [
        "a",
        "le"
      ],
      [
        "Ġhor",
        "se"
      ],
      [
        "Ġsnow",
        "man"
      ],
      [
        "Ġpres",
        "ent"
      ],
      [
        "Ġdan",
        "ced"
      ],
      [
        "Ġc",
        "ard"
      ],
      [
        "Ġte",
        "ach"
      ],
      [
        "Ġh",
        "on"
      ],
      [
        "oo",
        "se"
      ],
      [
        "Ġwh",
        "ich"
      ],
      [
        "Ġmin",
        "ut"
      ],
      [
        "Ġp",
        "ill"
      ],
      [
        "Ġs",
        "ur"
      ],
      [
        "ĠS",
        "omet"
      ],
      [
        "Ġche",
        "er"
      ],
      [
        "Ġth",
        "in"
      ],
      [
        "er",
        "t"
      ],
      [
        "J",
        "im"
      ],
      [
        "Ġgo",
        "es"
      ],
      [
        "e",
        "en"
      ],
      [
        "o",
        "nd"
      ],
      [
        "e",
        "x"
      ],
      [
        "J",
        "ust"
      ],
      [
        "Ġwho",
        "le"
      ],
      [
        "Ġtri",
        "es"
      ],
      [
        "S",
        "t"
      ],
      [
        "Ġgent",
        "ly"
      ],
      [
        "Ġforg",
        "ive"
      ],
      [
        "Ġwe",
        "aring"
      ],
      [
        "Ġm",
        "ed"
      ],
      [
        "ch",
        "ing"
      ],
      [
        "ul",
        "ar"
      ],
      [
        "Ġcon",
        "fused"
      ],
      [
        "Ġd",
        "i"
      ],
      [
        "M",
        "olly"
      ],
      [
        "Ġph",
        "one"
      ],
      [
        "Ġcorn",
        "er"
      ],
      [
        "Ġplac",
        "es"
      ],
      [
        "Ġimp",
        "ress"
      ],
      [
        "Ġgi",
        "ant"
      ],
      [
        "Ġroll",
        "ed"
      ],
      [
        "E",
        "very"
      ],
      [
        "Ġte",
        "eth"
      ],
      [
        "Ġdir",
        "t"
      ],
      [
        "Ġtri",
        "p"
      ],
      [
        "Ġm",
        "ind"
      ],
      [
        "M",
        "um"
      ],
      [
        "Ġru",
        "de"
      ],
      [
        "Ġsh",
        "r"
      ],
      [
        "ce",
        "an"
      ],
      [
        "Ġsl",
        "id"
      ],
      [
        "Ġo",
        "cean"
      ],
      [
        "Ġli",
        "ve"
      ],
      [
        "ĠG",
        "o"
      ],
      [
        "Ġsp",
        "ent"
      ],
      [
        "itt",
        "y"
      ],
      [
        "iz",
        "z"
      ],
      [
        "Ġpretend",
        "ed"
      ],
      [
        "Ġdri",
        "ve"
      ],
      [
        "Ġwor",
        "m"
      ],
      [
        "ĠEm",
        "ily"
      ],
      [
        "Ġas",
        "h"
      ],
      [
        "ss",
        "ed"
      ],
      [
        "Ġtast",
        "ed"
      ],
      [
        "ĠH",
        "ow"
      ],
      [
        "Ġsu",
        "pp"
      ],
      [
        "I",
        "n"
      ],
      [
        "Ġspl",
        "as"
      ],
      [
        "Ġcook",
        "ie"
      ],
      [
        "Ġc",
        "alm"
      ],
      [
        "l",
        "a"
      ],
      [
        "Ġfa",
        "ces"
      ],
      [
        "Ġl",
        "ad"
      ],
      [
        "Ġs",
        "er"
      ],
      [
        "Ġo",
        "ven"
      ],
      [
        "Ġp",
        "our"
      ],
      [
        "n",
        "ic"
      ],
      [
        "Ġdel",
        "ight"
      ],
      [
        "Ġl",
        "ay"
      ],
      [
        "ĠM",
        "ittens"
      ],
      [
        "Ġco",
        "in"
      ],
      [
        "Ġla",
        "st"
      ],
      [
        "Ġpic",
        "nic"
      ],
      [
        "Ġwa",
        "ve"
      ],
      [
        "Ġfur",
        "ry"
      ],
      [
        "Ġp",
        "an"
      ],
      [
        "Ġfe",
        "et"
      ],
      [
        "Ġre",
        "c"
      ],
      [
        "at",
        "o"
      ],
      [
        "Ġmach",
        "ine"
      ],
      [
        "Ġr",
        "ing"
      ],
      [
        "Ġch",
        "ick"
      ],
      [
        "on",
        "es"
      ],
      [
        "un",
        "k"
      ],
      [
        "Ġhelp",
        "ful"
      ],
      [
        "Ġw",
        "ip"
      ],
      [
        "Ġe",
        "ventually"
      ],
      [
        "Ġb",
        "an"
      ],
      [
        "Ġpus",
        "h"
      ],
      [
        "Ġem",
        "b"
      ],
      [
        "Ġrem",
        "ind"
      ],
      [
        "Ġbu",
        "bble"
      ],
      [
        "ĠC",
        "h"
      ],
      [
        "um",
        "ber"
      ],
      [
        "Ġlad",
        "der"
      ],
      [
        "Ġtom",
        "orrow"
      ],
      [
        "Ġsa",
        "ck"
      ],
      [
        "Ġc",
        "art"
      ],
      [
        "Ġ",
        "ign"
      ],
      [
        "Ġsa",
        "l"
      ],
      [
        "Ġre",
        "p"
      ],
      [
        "Ġcou",
        "ch"
      ],
      [
        "Ġbe",
        "ll"
      ],
      [
        "Ġt",
        "un"
      ],
      [
        "Ġt",
        "id"
      ],
      [
        "Ġneck",
        "l"
      ],
      [
        "Ġsp",
        "read"
      ],
      [
        "Ġb",
        "lew"
      ],
      [
        "Ġspid",
        "er"
      ],
      [
        "Ġbuild",
        "ing"
      ],
      [
        "at",
        "or"
      ],
      [
        "Ġst",
        "ret"
      ],
      [
        "Ġbug",
        "s"
      ],
      [
        "ar",
        "ge"
      ],
      [
        "Ġtoo",
        "l"
      ],
      [
        "Ġsmo",
        "oth"
      ],
      [
        "Ġtal",
        "king"
      ],
      [
        "Ġcho",
        "col"
      ],
      [
        "Ġro",
        "b"
      ],
      [
        "Ġfo",
        "ot"
      ],
      [
        "Ġs",
        "el"
      ],
      [
        "Ġsh",
        "y"
      ],
      [
        "Ġhid",
        "ing"
      ],
      [
        "h",
        "ile"
      ],
      [
        "Ġm",
        "ountain"
      ],
      [
        "Ġkne",
        "e"
      ],
      [
        "ig",
        "hed"
      ],
      [
        "Ġfo",
        "ld"
      ],
      [
        "al",
        "s"
      ],
      [
        "m",
        "o"
      ],
      [
        "ar",
        "ra"
      ],
      [
        "Ġch",
        "ased"
      ],
      [
        "Ġfight",
        "ing"
      ],
      [
        "if",
        "e"
      ],
      [
        "Ġsong",
        "s"
      ],
      [
        "n",
        "ot"
      ],
      [
        "S",
        "oon"
      ],
      [
        "Ġemb",
        "arra"
      ],
      [
        "Ġw",
        "ore"
      ],
      [
        "Ġlea",
        "f"
      ],
      [
        "Ġp",
        "ool"
      ],
      [
        "Ġwr",
        "ite"
      ],
      [
        "Ġpudd",
        "le"
      ],
      [
        "Ġvill",
        "age"
      ],
      [
        "Ġwait",
        "ing"
      ],
      [
        "Ġcan",
        "not"
      ],
      [
        "Ġwhen",
        "ever"
      ],
      [
        "Ġa",
        "nt"
      ],
      [
        "Ġfin",
        "ish"
      ],
      [
        "Ġst",
        "ep"
      ],
      [
        "Ġcl",
        "oth"
      ],
      [
        "M",
        "y"
      ],
      [
        "Ġtreat",
        "s"
      ],
      [
        "Ġh",
        "um"
      ],
      [
        "le",
        "x"
      ],
      [
        "ĠJen",
        "ny"
      ],
      [
        "Ġc",
        "ross"
      ],
      [
        "Ġpa",
        "w"
      ],
      [
        "Ġm",
        "aybe"
      ],
      [
        "Ġsel",
        "fish"
      ],
      [
        "Ġrob",
        "ot"
      ],
      [
        "Ġban",
        "an"
      ],
      [
        "ĠSomet",
        "imes"
      ],
      [
        "op",
        "h"
      ],
      [
        "Ġtast",
        "e"
      ],
      [
        "Ġchocol",
        "ate"
      ],
      [
        "Ġc",
        "oo"
      ],
      [
        "bo",
        "x"
      ],
      [
        "ul",
        "t"
      ],
      [
        "Ġstr",
        "ing"
      ],
      [
        "ĠJ",
        "ust"
      ],
      [
        "Ġbar",
        "ked"
      ],
      [
        "Ġsp",
        "e"
      ],
      [
        "ĠEvery",
        "where"
      ],
      [
        "Ġl",
        "arge"
      ],
      [
        "Ġn",
        "et"
      ],
      [
        "ĠS",
        "t"
      ],
      [
        "P",
        "lease"
      ],
      [
        "Ġpeace",
        "ful"
      ],
      [
        "Ġtid",
        "y"
      ],
      [
        "Ġst",
        "ra"
      ],
      [
        "M",
        "ama"
      ],
      [
        "Ġso",
        "l"
      ],
      [
        "Ġcol",
        "our"
      ],
      [
        "Ġwas",
        "h"
      ],
      [
        "ump",
        "y"
      ],
      [
        "Ġg",
        "en"
      ],
      [
        "ell",
        "y"
      ],
      [
        "Ġneckl",
        "ace"
      ],
      [
        "Ġp",
        "le"
      ],
      [
        "Ġfix",
        "ed"
      ],
      [
        "Ġshe",
        "lf"
      ],
      [
        "l",
        "ice"
      ],
      [
        "o",
        "ld"
      ],
      [
        "Ġst",
        "one"
      ],
      [
        "ĠP",
        "lease"
      ],
      [
        "h",
        "nn"
      ],
      [
        "Ġsc",
        "ar"
      ],
      [
        "Ġspr",
        "ay"
      ],
      [
        "le",
        "br"
      ],
      [
        "Ġ",
        "'"
      ],
      [
        "ar",
        "m"
      ],
      [
        "Ġst",
        "ir"
      ],
      [
        "D",
        "ad"
      ],
      [
        "ĠL",
        "e"
      ],
      [
        "Ġce",
        "lebr"
      ],
      [
        "or",
        "ry"
      ],
      [
        "ĠJ",
        "ake"
      ],
      [
        "o",
        "in"
      ],
      [
        "ĠT",
        "V"
      ],
      [
        "ig",
        "er"
      ],
      [
        "ung",
        "le"
      ],
      [
        "ir",
        "d"
      ],
      [
        "Ġm",
        "issed"
      ],
      [
        "N",
        "ow"
      ],
      [
        "Ġd",
        "eter"
      ],
      [
        "Ġcra",
        "b"
      ],
      [
        "Ġhe",
        "ars"
      ],
      [
        "Ġcreat",
        "ive"
      ],
      [
        "ĠThe",
        "ir"
      ],
      [
        "Ġembarra",
        "ssed"
      ],
      [
        "Ġtr",
        "ust"
      ],
      [
        "Ġj",
        "ungle"
      ],
      [
        "Ġfor",
        "ward"
      ],
      [
        "air",
        "s"
      ],
      [
        "Ġwh",
        "is"
      ],
      [
        "Ġdeter",
        "m"
      ],
      [
        "Ġjump",
        "ing"
      ],
      [
        "hnn",
        "y"
      ],
      [
        "ĠS",
        "ome"
      ],
      [
        "Ġstick",
        "s"
      ],
      [
        "ur",
        "se"
      ],
      [
        "Ġcarrot",
        "s"
      ],
      [
        "Ġsh",
        "aring"
      ],
      [
        "Ġhe",
        "l"
      ],
      [
        "Ġland",
        "ed"
      ],
      [
        "Ġwhist",
        "le"
      ],
      [
        "Ġpl",
        "ate"
      ],
      [
        "mo",
        "st"
      ],
      [
        "Ġsh",
        "irt"
      ],
      [
        "Ġdisapp",
        "oin"
      ],
      [
        "Ġtell",
        "s"
      ],
      [
        "Ġkn",
        "ocked"
      ],
      [
        "Ġte",
        "a"
      ],
      [
        "n",
        "ed"
      ],
      [
        "et",
        "s"
      ],
      [
        "i",
        "an"
      ],
      [
        "ĠA",
        "nn"
      ],
      [
        "Ġmo",
        "on"
      ],
      [
        "Ġle",
        "gs"
      ],
      [
        "Ġdec",
        "or"
      ],
      [
        "Ġal",
        "most"
      ],
      [
        "ĠD",
        "on"
      ],
      [
        "Ġs",
        "our"
      ],
      [
        "Ġem",
        "p"
      ],
      [
        "Ġash",
        "amed"
      ],
      [
        "Ġemp",
        "ty"
      ],
      [
        "get",
        "able"
      ],
      [
        "d",
        "ge"
      ],
      [
        "Ġgre",
        "w"
      ],
      [
        "g",
        "round"
      ],
      [
        "Ġve",
        "getable"
      ],
      [
        "Ġgr",
        "ay"
      ],
      [
        "Ġshe",
        "ep"
      ],
      [
        "ĠL",
        "isa"
      ],
      [
        "Ġgen",
        "er"
      ],
      [
        "Ġbre",
        "ath"
      ],
      [
        "y",
        "ing"
      ],
      [
        "Ġspl",
        "ash"
      ],
      [
        "Sara",
        "h"
      ],
      [
        "Ġme",
        "ant"
      ],
      [
        "B",
        "e"
      ],
      [
        "Ġtight",
        "ly"
      ],
      [
        "Ġpol",
        "ice"
      ],
      [
        "a",
        "king"
      ],
      [
        "Ġsa",
        "ve"
      ],
      [
        "Ġme",
        "adow"
      ],
      [
        "er",
        "p"
      ],
      [
        "Ġg",
        "as"
      ],
      [
        "Ġb",
        "al"
      ],
      [
        "Ġst",
        "ood"
      ],
      [
        "Ġwhis",
        "p"
      ],
      [
        "ĠW",
        "hy"
      ],
      [
        "Ġyell",
        "ed"
      ],
      [
        "d",
        "le"
      ],
      [
        "Ġje",
        "w"
      ],
      [
        "Ġunderst",
        "ood"
      ],
      [
        "T",
        "o"
      ],
      [
        "Ġno",
        "ds"
      ],
      [
        "Ġ",
        "On"
      ],
      [
        "Ġhon",
        "est"
      ],
      [
        "Ġthe",
        "se"
      ],
      [
        "it",
        "al"
      ],
      [
        "Ġb",
        "er"
      ],
      [
        "Ġdisappoin",
        "ted"
      ],
      [
        "Ġp",
        "ay"
      ],
      [
        "Ġcar",
        "ried"
      ],
      [
        "Ġsnack",
        "s"
      ],
      [
        "ar",
        "l"
      ],
      [
        "Ġsuc",
        "cess"
      ],
      [
        "d",
        "en"
      ],
      [
        "Ġpill",
        "ow"
      ],
      [
        "Ġho",
        "sp"
      ],
      [
        "Ġsee",
        "k"
      ],
      [
        "Ġk",
        "itten"
      ],
      [
        "Ġh",
        "ours"
      ],
      [
        "Ġhosp",
        "ital"
      ],
      [
        "ust",
        "r"
      ],
      [
        "Ġgo",
        "ld"
      ],
      [
        "Ġg",
        "un"
      ],
      [
        "Ġspark",
        "ly"
      ],
      [
        "Ġsh",
        "ip"
      ],
      [
        "ĠT",
        "eddy"
      ],
      [
        "Ġb",
        "ored"
      ],
      [
        "St",
        "op"
      ],
      [
        "Ġl",
        "ine"
      ],
      [
        "Ġn",
        "ut"
      ],
      [
        "or",
        "k"
      ],
      [
        "Ġp",
        "izz"
      ],
      [
        "v",
        "ous"
      ],
      [
        "Ġle",
        "m"
      ],
      [
        "Ġpower",
        "ful"
      ],
      [
        "Ġsp",
        "icy"
      ],
      [
        "W",
        "here"
      ],
      [
        "o",
        "bby"
      ],
      [
        "k",
        "in"
      ],
      [
        "Ġsh",
        "ore"
      ],
      [
        "Ġplant",
        "s"
      ],
      [
        "an",
        "o"
      ],
      [
        "ĠE",
        "ven"
      ],
      [
        "Ġbed",
        "room"
      ],
      [
        "Ġgener",
        "ous"
      ],
      [
        "Ġfr",
        "ustr"
      ],
      [
        "Ġt",
        "est"
      ],
      [
        "Ġpuzz",
        "le"
      ],
      [
        "Ġhid",
        "den"
      ],
      [
        "Ġj",
        "elly"
      ],
      [
        "bo",
        "dy"
      ],
      [
        "ĠB",
        "e"
      ],
      [
        "ĠTo",
        "gether"
      ],
      [
        "on",
        "y"
      ],
      [
        "h",
        "in"
      ],
      [
        "in",
        "a"
      ],
      [
        "Ġta",
        "ught"
      ],
      [
        "Ġeas",
        "y"
      ],
      [
        "Ġd",
        "rew"
      ],
      [
        "Ġwa",
        "ves"
      ],
      [
        "Ġ",
        "Z"
      ],
      [
        "Ġgl",
        "ass"
      ],
      [
        "Ġreturn",
        "ed"
      ],
      [
        "Ġfe",
        "ar"
      ],
      [
        "Ġmyster",
        "ious"
      ],
      [
        "if",
        "f"
      ],
      [
        "Ġs",
        "ighed"
      ],
      [
        "ĠM",
        "um"
      ],
      [
        "Ġstand",
        "ing"
      ],
      [
        "Ġm",
        "ot"
      ],
      [
        "Ġfe",
        "ed"
      ],
      [
        "Ġse",
        "ed"
      ],
      [
        "Ġscar",
        "f"
      ],
      [
        "Ġdeterm",
        "ined"
      ],
      [
        "Ġp",
        "in"
      ],
      [
        "Ġcl",
        "ass"
      ],
      [
        "ĠR",
        "ex"
      ],
      [
        "Ġknow",
        "ing"
      ],
      [
        "Ġgr",
        "oup"
      ],
      [
        "Ġbl",
        "ow"
      ],
      [
        "Ġk",
        "issed"
      ],
      [
        "c",
        "les"
      ],
      [
        "Ġche",
        "w"
      ],
      [
        "Ġpizz",
        "a"
      ],
      [
        "itt",
        "er"
      ],
      [
        "Ġv",
        "an"
      ],
      [
        "Ġh",
        "ur"
      ],
      [
        "Ġthank",
        "ful"
      ],
      [
        "erp",
        "ill"
      ],
      [
        "Ġcat",
        "erpill"
      ],
      [
        "Ġpol",
        "ite"
      ],
      [
        "Ġfing",
        "er"
      ],
      [
        "Ġa",
        "v"
      ],
      [
        "Ġc",
        "ries"
      ],
      [
        "Ġsleep",
        "y"
      ],
      [
        "Ġmess",
        "y"
      ],
      [
        "Ġn",
        "er"
      ],
      [
        "Ġfrustr",
        "ated"
      ],
      [
        "Ġp",
        "ri"
      ],
      [
        "Ġclos",
        "et"
      ],
      [
        "g",
        "ly"
      ],
      [
        "Ġyour",
        "self"
      ],
      [
        "au",
        "l"
      ],
      [
        "J",
        "ane"
      ],
      [
        "Ġminut",
        "es"
      ],
      [
        "'",
        "d"
      ],
      [
        "Ġte",
        "ars"
      ],
      [
        "Ġfan",
        "cy"
      ],
      [
        "Ġha",
        "ng"
      ],
      [
        "S",
        "orry"
      ],
      [
        "Ġb",
        "urn"
      ],
      [
        "The",
        "re"
      ],
      [
        "Ġu",
        "gly"
      ],
      [
        "Ġso",
        "ld"
      ],
      [
        "Ġpo",
        "or"
      ],
      [
        "w",
        "ork"
      ],
      [
        "Ġner",
        "vous"
      ],
      [
        "Ġg",
        "ate"
      ],
      [
        "Ġsandw",
        "ich"
      ],
      [
        "Ġr",
        "ad"
      ],
      [
        "Ġprin",
        "ce"
      ],
      [
        "ĠP",
        "eter"
      ],
      [
        "Ġw",
        "is"
      ],
      [
        "Ġcr",
        "own"
      ],
      [
        "Ġf",
        "ig"
      ],
      [
        "er",
        "a"
      ],
      [
        "Ġlo",
        "ck"
      ],
      [
        "Ġes",
        "c"
      ],
      [
        "Ġre",
        "g"
      ],
      [
        "Ġspo",
        "il"
      ],
      [
        "us",
        "ie"
      ],
      [
        "Ġgr",
        "umpy"
      ],
      [
        "oo",
        "f"
      ],
      [
        "Ġwo",
        "lf"
      ],
      [
        "A",
        "re"
      ],
      [
        "Ġp",
        "ir"
      ],
      [
        "oo",
        "p"
      ],
      [
        "Ġpass",
        "ed"
      ],
      [
        "Ġt",
        "ick"
      ],
      [
        "p",
        "ack"
      ],
      [
        "Ġtw",
        "irl"
      ],
      [
        "ot",
        "e"
      ],
      [
        "Ġho",
        "pping"
      ],
      [
        "Ġgather",
        "ed"
      ],
      [
        "Ġexc",
        "ite"
      ],
      [
        "Ġsc",
        "r"
      ],
      [
        "Ġbr",
        "idge"
      ],
      [
        "a",
        "f"
      ],
      [
        "Ġof",
        "ten"
      ],
      [
        "id",
        "dle"
      ],
      [
        "Ġm",
        "ummy"
      ],
      [
        "f",
        "l"
      ],
      [
        "Ġfl",
        "ag"
      ],
      [
        "ens",
        "ive"
      ],
      [
        "Ġche",
        "st"
      ],
      [
        "Ġdr",
        "op"
      ],
      [
        "os",
        "aur"
      ],
      [
        "Ġexp",
        "ensive"
      ],
      [
        "sel",
        "ves"
      ],
      [
        "Ġcaterpill",
        "ar"
      ],
      [
        "Ġb",
        "oring"
      ],
      [
        "Ġv",
        "ase"
      ],
      [
        "Ġt",
        "ent"
      ],
      [
        "iss",
        "ors"
      ],
      [
        "Ġta",
        "ken"
      ],
      [
        "ill",
        "ed"
      ],
      [
        "s",
        "ist"
      ],
      [
        "The",
        "ir"
      ],
      [
        "Ġm",
        "ir"
      ],
      [
        "Ġp",
        "ress"
      ],
      [
        "Ġl",
        "it"
      ],
      [
        "Ġle",
        "g"
      ],
      [
        "m",
        "b"
      ],
      [
        "Ġsa",
        "ved"
      ],
      [
        "Ġc",
        "and"
      ],
      [
        "Ġsc",
        "issors"
      ],
      [
        "iz",
        "zy"
      ],
      [
        "Ġf",
        "il"
      ],
      [
        "Ġdin",
        "osaur"
      ],
      [
        "Ġget",
        "s"
      ],
      [
        "Ġdan",
        "cing"
      ],
      [
        "Ġansw",
        "ered"
      ],
      [
        "Ġtr",
        "ue"
      ],
      [
        "Ġpick",
        "s"
      ],
      [
        "Ġexcite",
        "ment"
      ],
      [
        "Ġwor",
        "king"
      ],
      [
        "Ġde",
        "er"
      ],
      [
        "Ġon",
        "es"
      ],
      [
        "Ġsp",
        "end"
      ],
      [
        "W",
        "ho"
      ],
      [
        "u",
        "al"
      ],
      [
        "Ġmist",
        "ake"
      ],
      [
        "Ġcl",
        "own"
      ],
      [
        "Ġwa",
        "gged"
      ],
      [
        "u",
        "ce"
      ],
      [
        "Ġm",
        "iddle"
      ],
      [
        "Ġbo",
        "ss"
      ],
      [
        "ĠB",
        "r"
      ],
      [
        "Ġfruit",
        "s"
      ],
      [
        "r",
        "or"
      ],
      [
        "qu",
        "e"
      ],
      [
        "ell",
        "a"
      ],
      [
        "Ġgigg",
        "led"
      ],
      [
        "Ġwa",
        "nder"
      ],
      [
        "Ġt",
        "ie"
      ],
      [
        "Ġcomfort",
        "able"
      ],
      [
        "Ġple",
        "ased"
      ],
      [
        "s",
        "er"
      ],
      [
        "eci",
        "ally"
      ],
      [
        "Ġbr",
        "ush"
      ],
      [
        "l",
        "ight"
      ],
      [
        "Ġmo",
        "v"
      ],
      [
        "Ġkn",
        "ight"
      ],
      [
        "Ġ",
        "OK"
      ],
      [
        "at",
        "es"
      ],
      [
        "Ġmed",
        "ic"
      ],
      [
        "Ġrock",
        "et"
      ],
      [
        "ĠLe",
        "o"
      ],
      [
        "Ġpack",
        "ed"
      ],
      [
        "Ġas",
        "king"
      ],
      [
        "ug",
        "ar"
      ],
      [
        "Ġo",
        "k"
      ],
      [
        "Ġb",
        "one"
      ],
      [
        "Ġmat",
        "ch"
      ],
      [
        "S",
        "p"
      ],
      [
        "p",
        "ecially"
      ],
      [
        "ot",
        "s"
      ],
      [
        "Ġst",
        "uff"
      ],
      [
        "Ġes",
        "pecially"
      ],
      [
        "Ġdr",
        "um"
      ],
      [
        "Ġd",
        "est"
      ],
      [
        "Ġs",
        "ight"
      ],
      [
        "in",
        "ess"
      ],
      [
        "Ġwalk",
        "s"
      ],
      [
        "Ġvegetable",
        "s"
      ],
      [
        "Ġ",
        "No"
      ],
      [
        "Ġn",
        "umber"
      ],
      [
        "Ġdog",
        "s"
      ],
      [
        "Ġmedic",
        "ine"
      ],
      [
        "Jim",
        "my"
      ],
      [
        "Ġdist",
        "ance"
      ],
      [
        "Ġa",
        "dd"
      ],
      [
        "us",
        "hed"
      ],
      [
        "Ġdraw",
        "ing"
      ],
      [
        "Ġcall",
        "ing"
      ],
[...]
